{
  "version": "1.0",
  "truncation": null,
  "padding": null,
  "added_tokens": [
    {
      "id": 0,
      "content": "[UNK]",
      "single_word": false,
      "lstrip": false,
      "rstrip": false,
      "normalized": false,
      "special": true
    },
    {
      "id": 1,
      "content": "[PAD]",
      "single_word": false,
      "lstrip": false,
      "rstrip": false,
      "normalized": false,
      "special": true
    },
    {
      "id": 2,
      "content": "[CLS]",
      "single_word": false,
      "lstrip": false,
      "rstrip": false,
      "normalized": false,
      "special": true
    },
    {
      "id": 3,
      "content": "[SEP]",
      "single_word": false,
      "lstrip": false,
      "rstrip": false,
      "normalized": false,
      "special": true
    },
    {
      "id": 4,
      "content": "[MASK]",
      "single_word": false,
      "lstrip": false,
      "rstrip": false,
      "normalized": false,
      "special": true
    },
    {
      "id": 5,
      "content": "[BOS]",
      "single_word": false,
      "lstrip": false,
      "rstrip": false,
      "normalized": false,
      "special": true
    },
    {
      "id": 6,
      "content": "[EOS]",
      "single_word": false,
      "lstrip": false,
      "rstrip": false,
      "normalized": false,
      "special": true
    }
  ],
  "normalizer": null,
  "pre_tokenizer": {
    "type": "BertPreTokenizer"
  },
  "post_processor": null,
  "decoder": null,
  "model": {
    "type": "WordPiece",
    "unk_token": "[UNK]",
    "continuing_subword_prefix": "##",
    "max_input_chars_per_word": 100,
    "vocab": {
      "[UNK]": 0,
      "[PAD]": 1,
      "[CLS]": 2,
      "[SEP]": 3,
      "[MASK]": 4,
      "[BOS]": 5,
      "[EOS]": 6,
      "!": 7,
      "\"": 8,
      "#": 9,
      "$": 10,
      "%": 11,
      "&": 12,
      "'": 13,
      "(": 14,
      ")": 15,
      "*": 16,
      "+": 17,
      ",": 18,
      "-": 19,
      ".": 20,
      "/": 21,
      "0": 22,
      "1": 23,
      "2": 24,
      "3": 25,
      "4": 26,
      "5": 27,
      "6": 28,
      "7": 29,
      "8": 30,
      "9": 31,
      ":": 32,
      ";": 33,
      "<": 34,
      "=": 35,
      ">": 36,
      "?": 37,
      "@": 38,
      "A": 39,
      "B": 40,
      "C": 41,
      "D": 42,
      "E": 43,
      "F": 44,
      "G": 45,
      "H": 46,
      "I": 47,
      "J": 48,
      "K": 49,
      "L": 50,
      "M": 51,
      "N": 52,
      "O": 53,
      "P": 54,
      "Q": 55,
      "R": 56,
      "S": 57,
      "T": 58,
      "U": 59,
      "V": 60,
      "W": 61,
      "X": 62,
      "Y": 63,
      "Z": 64,
      "[": 65,
      "\\": 66,
      "]": 67,
      "^": 68,
      "_": 69,
      "`": 70,
      "a": 71,
      "b": 72,
      "c": 73,
      "d": 74,
      "e": 75,
      "f": 76,
      "g": 77,
      "h": 78,
      "i": 79,
      "j": 80,
      "k": 81,
      "l": 82,
      "m": 83,
      "n": 84,
      "o": 85,
      "p": 86,
      "q": 87,
      "r": 88,
      "s": 89,
      "t": 90,
      "u": 91,
      "v": 92,
      "w": 93,
      "x": 94,
      "y": 95,
      "z": 96,
      "{": 97,
      "|": 98,
      "}": 99,
      "~": 100,
      "": 101,
      "": 102,
      "": 103,
      "": 104,
      "": 105,
      "": 106,
      "": 107,
      "": 108,
      "": 109,
      "": 110,
      "": 111,
      "": 112,
      "": 113,
      "": 114,
      "": 115,
      "": 116,
      "": 117,
      "": 118,
      "": 119,
      "": 120,
      "": 121,
      "": 122,
      "": 123,
      "": 124,
      "": 125,
      "": 126,
      "": 127,
      "": 128,
      "": 129,
      "¡": 130,
      "¢": 131,
      "£": 132,
      "¤": 133,
      "¥": 134,
      "¦": 135,
      "§": 136,
      "¨": 137,
      "©": 138,
      "ª": 139,
      "«": 140,
      "¬": 141,
      "­": 142,
      "®": 143,
      "¯": 144,
      "°": 145,
      "±": 146,
      "²": 147,
      "³": 148,
      "´": 149,
      "µ": 150,
      "¶": 151,
      "·": 152,
      "¸": 153,
      "¹": 154,
      "º": 155,
      "»": 156,
      "¼": 157,
      "½": 158,
      "¾": 159,
      "¿": 160,
      "À": 161,
      "Á": 162,
      "Â": 163,
      "Ã": 164,
      "Ä": 165,
      "Å": 166,
      "Æ": 167,
      "Ç": 168,
      "È": 169,
      "É": 170,
      "Ê": 171,
      "Ë": 172,
      "Ì": 173,
      "Í": 174,
      "Î": 175,
      "Ï": 176,
      "Ð": 177,
      "Ñ": 178,
      "Ò": 179,
      "Ó": 180,
      "Ô": 181,
      "Õ": 182,
      "Ö": 183,
      "×": 184,
      "Ø": 185,
      "Ù": 186,
      "Ú": 187,
      "Û": 188,
      "Ü": 189,
      "Ý": 190,
      "Þ": 191,
      "ß": 192,
      "à": 193,
      "á": 194,
      "â": 195,
      "ã": 196,
      "ä": 197,
      "å": 198,
      "æ": 199,
      "ç": 200,
      "è": 201,
      "é": 202,
      "ê": 203,
      "ë": 204,
      "ì": 205,
      "í": 206,
      "î": 207,
      "ï": 208,
      "ð": 209,
      "ñ": 210,
      "ò": 211,
      "ó": 212,
      "ô": 213,
      "õ": 214,
      "ö": 215,
      "÷": 216,
      "ø": 217,
      "ù": 218,
      "ú": 219,
      "û": 220,
      "ü": 221,
      "ý": 222,
      "þ": 223,
      "ÿ": 224,
      "Ā": 225,
      "ā": 226,
      "Ă": 227,
      "ă": 228,
      "Ą": 229,
      "ą": 230,
      "Ć": 231,
      "ć": 232,
      "Ĉ": 233,
      "ĉ": 234,
      "Ċ": 235,
      "ċ": 236,
      "Č": 237,
      "č": 238,
      "Ď": 239,
      "ď": 240,
      "Đ": 241,
      "đ": 242,
      "Ē": 243,
      "ē": 244,
      "ĕ": 245,
      "Ė": 246,
      "ė": 247,
      "Ę": 248,
      "ę": 249,
      "Ě": 250,
      "ě": 251,
      "ĝ": 252,
      "Ğ": 253,
      "ğ": 254,
      "Ġ": 255,
      "ġ": 256,
      "Ģ": 257,
      "ģ": 258,
      "ĥ": 259,
      "Ħ": 260,
      "ħ": 261,
      "ĩ": 262,
      "Ī": 263,
      "ī": 264,
      "ĭ": 265,
      "Į": 266,
      "į": 267,
      "İ": 268,
      "ı": 269,
      "Ĳ": 270,
      "ĵ": 271,
      "Ķ": 272,
      "ķ": 273,
      "ĸ": 274,
      "Ĺ": 275,
      "ĺ": 276,
      "Ļ": 277,
      "ļ": 278,
      "Ľ": 279,
      "ľ": 280,
      "Ŀ": 281,
      "Ł": 282,
      "ł": 283,
      "Ń": 284,
      "ń": 285,
      "Ņ": 286,
      "ņ": 287,
      "Ň": 288,
      "ň": 289,
      "ŋ": 290,
      "Ō": 291,
      "ō": 292,
      "ŏ": 293,
      "Ő": 294,
      "ő": 295,
      "Œ": 296,
      "œ": 297,
      "Ŕ": 298,
      "ŕ": 299,
      "Ř": 300,
      "ř": 301,
      "Ś": 302,
      "ś": 303,
      "Ŝ": 304,
      "ŝ": 305,
      "Ş": 306,
      "ş": 307,
      "Š": 308,
      "š": 309,
      "Ţ": 310,
      "ţ": 311,
      "Ť": 312,
      "ť": 313,
      "ũ": 314,
      "Ū": 315,
      "ū": 316,
      "ŭ": 317,
      "Ů": 318,
      "ů": 319,
      "Ű": 320,
      "ű": 321,
      "Ų": 322,
      "ų": 323,
      "ŵ": 324,
      "ŷ": 325,
      "Ÿ": 326,
      "Ź": 327,
      "ź": 328,
      "Ż": 329,
      "ż": 330,
      "Ž": 331,
      "ž": 332,
      "ſ": 333,
      "Ɔ": 334,
      "Ƒ": 335,
      "ƒ": 336,
      "Ɠ": 337,
      "Ɩ": 338,
      "Ƙ": 339,
      "ƛ": 340,
      "Ɲ": 341,
      "Ơ": 342,
      "ơ": 343,
      "Ʀ": 344,
      "Ƭ": 345,
      "ư": 346,
      "ǎ": 347,
      "ǐ": 348,
      "ǒ": 349,
      "ǔ": 350,
      "ǘ": 351,
      "ǜ": 352,
      "ǝ": 353,
      "ǟ": 354,
      "ǣ": 355,
      "ǫ": 356,
      "Ǵ": 357,
      "ǵ": 358,
      "Ǻ": 359,
      "ȃ": 360,
      "ș": 361,
      "ț": 362,
      "Ȣ": 363,
      "Ȥ": 364,
      "Ȼ": 365,
      "ɐ": 366,
      "ɑ": 367,
      "ɒ": 368,
      "ɔ": 369,
      "ɕ": 370,
      "ə": 371,
      "ɚ": 372,
      "ɛ": 373,
      "ɜ": 374,
      "ɡ": 375,
      "ɢ": 376,
      "ɣ": 377,
      "ɤ": 378,
      "ɨ": 379,
      "ɪ": 380,
      "ɫ": 381,
      "ɬ": 382,
      "ɯ": 383,
      "ɲ": 384,
      "ɴ": 385,
      "ɵ": 386,
      "ɹ": 387,
      "ɾ": 388,
      "ʀ": 389,
      "ʁ": 390,
      "ʃ": 391,
      "ʊ": 392,
      "ʋ": 393,
      "ʌ": 394,
      "ʎ": 395,
      "ʐ": 396,
      "ʒ": 397,
      "ʔ": 398,
      "ʚ": 399,
      "ʤ": 400,
      "ʦ": 401,
      "ʰ": 402,
      "ʲ": 403,
      "ʺ": 404,
      "ʻ": 405,
      "ʼ": 406,
      "ʾ": 407,
      "ʿ": 408,
      "ˁ": 409,
      "ˆ": 410,
      "ˇ": 411,
      "ˈ": 412,
      "ˌ": 413,
      "ː": 414,
      "ˑ": 415,
      "˘": 416,
      "˙": 417,
      "˚": 418,
      "˛": 419,
      "˜": 420,
      "˝": 421,
      "ˡ": 422,
      "ˤ": 423,
      "̀": 424,
      "́": 425,
      "̂": 426,
      "̃": 427,
      "̄": 428,
      "̆": 429,
      "̇": 430,
      "̈": 431,
      "̍": 432,
      "̡": 433,
      "̣": 434,
      "̤": 435,
      "̧": 436,
      "̯": 437,
      "̱": 438,
      "̶": 439,
      "͘": 440,
      "͡": 441,
      ";": 442,
      "΄": 443,
      "Ά": 444,
      "Έ": 445,
      "Ί": 446,
      "Ό": 447,
      "Ώ": 448,
      "ΐ": 449,
      "Α": 450,
      "Β": 451,
      "Γ": 452,
      "Δ": 453,
      "Ε": 454,
      "Ζ": 455,
      "Η": 456,
      "Θ": 457,
      "Ι": 458,
      "Κ": 459,
      "Λ": 460,
      "Μ": 461,
      "Ν": 462,
      "Ο": 463,
      "Π": 464,
      "Ρ": 465,
      "Σ": 466,
      "Τ": 467,
      "Υ": 468,
      "Φ": 469,
      "Χ": 470,
      "Ω": 471,
      "ά": 472,
      "έ": 473,
      "ή": 474,
      "ί": 475,
      "α": 476,
      "β": 477,
      "γ": 478,
      "δ": 479,
      "ε": 480,
      "ζ": 481,
      "η": 482,
      "θ": 483,
      "ι": 484,
      "κ": 485,
      "λ": 486,
      "μ": 487,
      "ν": 488,
      "ξ": 489,
      "ο": 490,
      "π": 491,
      "ρ": 492,
      "ς": 493,
      "σ": 494,
      "τ": 495,
      "υ": 496,
      "φ": 497,
      "χ": 498,
      "ψ": 499,
      "ω": 500,
      "ϊ": 501,
      "ϋ": 502,
      "ό": 503,
      "ύ": 504,
      "ώ": 505,
      "Ё": 506,
      "Ђ": 507,
      "Ѓ": 508,
      "Є": 509,
      "Ѕ": 510,
      "І": 511,
      "Ї": 512,
      "Ј": 513,
      "Љ": 514,
      "Њ": 515,
      "Ћ": 516,
      "Ќ": 517,
      "Ў": 518,
      "Џ": 519,
      "А": 520,
      "Б": 521,
      "В": 522,
      "Г": 523,
      "Д": 524,
      "Е": 525,
      "Ж": 526,
      "З": 527,
      "И": 528,
      "Й": 529,
      "К": 530,
      "Л": 531,
      "М": 532,
      "Н": 533,
      "О": 534,
      "П": 535,
      "Р": 536,
      "С": 537,
      "Т": 538,
      "У": 539,
      "Ф": 540,
      "Х": 541,
      "Ц": 542,
      "Ч": 543,
      "Ш": 544,
      "Щ": 545,
      "Ъ": 546,
      "Ы": 547,
      "Ь": 548,
      "Э": 549,
      "Ю": 550,
      "Я": 551,
      "а": 552,
      "б": 553,
      "в": 554,
      "г": 555,
      "д": 556,
      "е": 557,
      "ж": 558,
      "з": 559,
      "и": 560,
      "й": 561,
      "к": 562,
      "л": 563,
      "м": 564,
      "н": 565,
      "о": 566,
      "п": 567,
      "р": 568,
      "с": 569,
      "т": 570,
      "у": 571,
      "ф": 572,
      "х": 573,
      "ц": 574,
      "ч": 575,
      "ш": 576,
      "щ": 577,
      "ъ": 578,
      "ы": 579,
      "ь": 580,
      "э": 581,
      "ю": 582,
      "я": 583,
      "ё": 584,
      "ђ": 585,
      "ѓ": 586,
      "є": 587,
      "ѕ": 588,
      "і": 589,
      "ї": 590,
      "ј": 591,
      "љ": 592,
      "њ": 593,
      "ћ": 594,
      "ќ": 595,
      "ў": 596,
      "џ": 597,
      "Ѳ": 598,
      "ѳ": 599,
      "Ґ": 600,
      "ґ": 601,
      "ғ": 602,
      "ҙ": 603,
      "қ": 604,
      "Ҡ": 605,
      "ҡ": 606,
      "ң": 607,
      "ү": 608,
      "ұ": 609,
      "Ҳ": 610,
      "ҳ": 611,
      "һ": 612,
      "ә": 613,
      "ө": 614,
      "ӳ": 615,
      "ְ": 616,
      "ֲ": 617,
      "ֳ": 618,
      "ִ": 619,
      "ֵ": 620,
      "ֶ": 621,
      "ַ": 622,
      "ָ": 623,
      "ֹ": 624,
      "ּ": 625,
      "ֿ": 626,
      "ׁ": 627,
      "א": 628,
      "ב": 629,
      "ג": 630,
      "ד": 631,
      "ה": 632,
      "ו": 633,
      "ז": 634,
      "ח": 635,
      "ט": 636,
      "י": 637,
      "כ": 638,
      "ל": 639,
      "ם": 640,
      "מ": 641,
      "ן": 642,
      "נ": 643,
      "ס": 644,
      "ע": 645,
      "פ": 646,
      "ץ": 647,
      "צ": 648,
      "ק": 649,
      "ר": 650,
      "ש": 651,
      "ת": 652,
      "،": 653,
      "ؒ": 654,
      "؛": 655,
      "ء": 656,
      "آ": 657,
      "أ": 658,
      "ؤ": 659,
      "إ": 660,
      "ئ": 661,
      "ا": 662,
      "ب": 663,
      "ة": 664,
      "ت": 665,
      "ث": 666,
      "ج": 667,
      "ح": 668,
      "خ": 669,
      "د": 670,
      "ذ": 671,
      "ر": 672,
      "ز": 673,
      "س": 674,
      "ش": 675,
      "ص": 676,
      "ض": 677,
      "ط": 678,
      "ظ": 679,
      "ع": 680,
      "غ": 681,
      "ـ": 682,
      "ف": 683,
      "ق": 684,
      "ك": 685,
      "ل": 686,
      "م": 687,
      "ن": 688,
      "ه": 689,
      "و": 690,
      "ى": 691,
      "ي": 692,
      "ً": 693,
      "ٌ": 694,
      "ٍ": 695,
      "َ": 696,
      "ُ": 697,
      "ِ": 698,
      "ّ": 699,
      "ْ": 700,
      "ٲ": 701,
      "ٹ": 702,
      "ټ": 703,
      "پ": 704,
      "ځ": 705,
      "چ": 706,
      "ڠ": 707,
      "ڤ": 708,
      "ک": 709,
      "ڬ": 710,
      "ڭ": 711,
      "گ": 712,
      "ھ": 713,
      "ہ": 714,
      "ۂ": 715,
      "ۆ": 716,
      "ۇ": 717,
      "ی": 718,
      "ې": 719,
      "ە": 720,
      "۞": 721,
      "۩": 722,
      "۰": 723,
      "۱": 724,
      "۲": 725,
      "۳": 726,
      "۴": 727,
      "۵": 728,
      "۶": 729,
      "۷": 730,
      "۸": 731,
      "۹": 732,
      "ރ": 733,
      "ކ": 734,
      "އ": 735,
      "މ": 736,
      "ާ": 737,
      "ި": 738,
      "ެ": 739,
      "ߖ": 740,
      "ߧ": 741,
      "߮": 742,
      "ं": 743,
      "अ": 744,
      "आ": 745,
      "ई": 746,
      "उ": 747,
      "क": 748,
      "ग": 749,
      "च": 750,
      "छ": 751,
      "ज": 752,
      "ञ": 753,
      "ट": 754,
      "ड": 755,
      "ढ": 756,
      "ण": 757,
      "त": 758,
      "थ": 759,
      "द": 760,
      "ध": 761,
      "न": 762,
      "प": 763,
      "ब": 764,
      "भ": 765,
      "म": 766,
      "य": 767,
      "र": 768,
      "ल": 769,
      "व": 770,
      "श": 771,
      "ष": 772,
      "स": 773,
      "ह": 774,
      "़": 775,
      "ा": 776,
      "ि": 777,
      "ी": 778,
      "ु": 779,
      "ृ": 780,
      "े": 781,
      "ॉ": 782,
      "ो": 783,
      "्": 784,
      "ॐ": 785,
      "ॡ": 786,
      "०": 787,
      "१": 788,
      "२": 789,
      "३": 790,
      "५": 791,
      "९": 792,
      "ং": 793,
      "আ": 794,
      "ই": 795,
      "এ": 796,
      "ক": 797,
      "গ": 798,
      "ঙ": 799,
      "চ": 800,
      "ট": 801,
      "ত": 802,
      "ন": 803,
      "প": 804,
      "ব": 805,
      "ম": 806,
      "য": 807,
      "র": 808,
      "ল": 809,
      "শ": 810,
      "ষ": 811,
      "হ": 812,
      "়": 813,
      "া": 814,
      "ি": 815,
      "ু": 816,
      "ো": 817,
      "্": 818,
      "ৰ": 819,
      "ਗ": 820,
      "ਚ": 821,
      "ਡ": 822,
      "ਹ": 823,
      "ੀ": 824,
      "੍": 825,
      "ੜ": 826,
      "ੰ": 827,
      "ં": 828,
      "અ": 829,
      "ક": 830,
      "જ": 831,
      "ત": 832,
      "મ": 833,
      "ય": 834,
      "ર": 835,
      "સ": 836,
      "ા": 837,
      "િ": 838,
      "ુ": 839,
      "ે": 840,
      "્": 841,
      "૦": 842,
      "૧": 843,
      "૨": 844,
      "க": 845,
      "ங": 846,
      "ச": 847,
      "ட": 848,
      "த": 849,
      "ன": 850,
      "ப": 851,
      "ம": 852,
      "ய": 853,
      "ர": 854,
      "ல": 855,
      "வ": 856,
      "ஷ": 857,
      "ா": 858,
      "ி": 859,
      "ு": 860,
      "ூ": 861,
      "ெ": 862,
      "ை": 863,
      "ோ": 864,
      "்": 865,
      "ం": 866,
      "ఆ": 867,
      "క": 868,
      "గ": 869,
      "జ": 870,
      "డ": 871,
      "ద": 872,
      "ధ": 873,
      "న": 874,
      "ప": 875,
      "ర": 876,
      "శ": 877,
      "ా": 878,
      "ు": 879,
      "ె": 880,
      "ే": 881,
      "ొ": 882,
      "్": 883,
      "ౕ": 884,
      "ಐ": 885,
      "ಯ": 886,
      "ರ": 887,
      "ವ": 888,
      "ಶ": 889,
      "ಾ": 890,
      "ೆ": 891,
      "ೈ": 892,
      "್": 893,
      "ೖ": 894,
      "೦": 895,
      "೧": 896,
      "೨": 897,
      "೩": 898,
      "೫": 899,
      "೬": 900,
      "೮": 901,
      "೯": 902,
      "അ": 903,
      "എ": 904,
      "ക": 905,
      "ത": 906,
      "ദ": 907,
      "ന": 908,
      "പ": 909,
      "മ": 910,
      "യ": 911,
      "ല": 912,
      "വ": 913,
      "ഷ": 914,
      "സ": 915,
      "ി": 916,
      "ീ": 917,
      "ു": 918,
      "ോ": 919,
      "്": 920,
      "න": 921,
      "ම": 922,
      "ර": 923,
      "ව": 924,
      "හ": 925,
      "ු": 926,
      "ก": 927,
      "ข": 928,
      "ค": 929,
      "ฆ": 930,
      "ง": 931,
      "จ": 932,
      "ฉ": 933,
      "ช": 934,
      "ซ": 935,
      "ญ": 936,
      "ฎ": 937,
      "ฏ": 938,
      "ฐ": 939,
      "ฑ": 940,
      "ฒ": 941,
      "ณ": 942,
      "ด": 943,
      "ต": 944,
      "ถ": 945,
      "ท": 946,
      "ธ": 947,
      "น": 948,
      "บ": 949,
      "ป": 950,
      "ผ": 951,
      "ฝ": 952,
      "พ": 953,
      "ฟ": 954,
      "ภ": 955,
      "ม": 956,
      "ย": 957,
      "ร": 958,
      "ฤ": 959,
      "ล": 960,
      "ว": 961,
      "ศ": 962,
      "ษ": 963,
      "ส": 964,
      "ห": 965,
      "อ": 966,
      "ฮ": 967,
      "ฯ": 968,
      "ะ": 969,
      "ั": 970,
      "า": 971,
      "ำ": 972,
      "ิ": 973,
      "ี": 974,
      "ึ": 975,
      "ื": 976,
      "ุ": 977,
      "ู": 978,
      "฿": 979,
      "เ": 980,
      "แ": 981,
      "โ": 982,
      "ใ": 983,
      "ไ": 984,
      "ๆ": 985,
      "็": 986,
      "่": 987,
      "้": 988,
      "๊": 989,
      "๋": 990,
      "์": 991,
      "๑": 992,
      "ຂ": 993,
      "ຄ": 994,
      "ງ": 995,
      "ຈ": 996,
      "ດ": 997,
      "ຖ": 998,
      "ນ": 999,
      "ບ": 1000,
      "ມ": 1001,
      "ລ": 1002,
      "ວ": 1003,
      "ັ": 1004,
      "າ": 1005,
      "ຸ": 1006,
      "ົ": 1007,
      "ຽ": 1008,
      "ເ": 1009,
      "້": 1010,
      "ໜ": 1011,
      "་": 1012,
      "ཏ": 1013,
      "ད": 1014,
      "ན": 1015,
      "བ": 1016,
      "མ": 1017,
      "ཚ": 1018,
      "འ": 1019,
      "ལ": 1020,
      "ས": 1021,
      "ཱ": 1022,
      "ི": 1023,
      "ོ": 1024,
      "ྔ": 1025,
      "ླ": 1026,
      "န": 1027,
      "ရ": 1028,
      "ဝ": 1029,
      "သ": 1030,
      "ဟ": 1031,
      "ေ": 1032,
      "္": 1033,
      "ა": 1034,
      "ბ": 1035,
      "გ": 1036,
      "დ": 1037,
      "ე": 1038,
      "ვ": 1039,
      "ზ": 1040,
      "თ": 1041,
      "ი": 1042,
      "კ": 1043,
      "ლ": 1044,
      "მ": 1045,
      "ნ": 1046,
      "ო": 1047,
      "პ": 1048,
      "რ": 1049,
      "ს": 1050,
      "ტ": 1051,
      "უ": 1052,
      "ქ": 1053,
      "ღ": 1054,
      "შ": 1055,
      "ც": 1056,
      "ძ": 1057,
      "წ": 1058,
      "ხ": 1059,
      "ჯ": 1060,
      "ህ": 1061,
      "ሊ": 1062,
      "ል": 1063,
      "ሓ": 1064,
      "ሕ": 1065,
      "መ": 1066,
      "ሙ": 1067,
      "ሜ": 1068,
      "ም": 1069,
      "ሥ": 1070,
      "ረ": 1071,
      "ሪ": 1072,
      "ራ": 1073,
      "ር": 1074,
      "ሰ": 1075,
      "ሴ": 1076,
      "ስ": 1077,
      "ሻ": 1078,
      "ሽ": 1079,
      "ቀ": 1080,
      "ቐ": 1081,
      "በ": 1082,
      "ቢ": 1083,
      "ባ": 1084,
      "ተ": 1085,
      "ት": 1086,
      "ቶ": 1087,
      "ነ": 1088,
      "ን": 1089,
      "አ": 1090,
      "ኣ": 1091,
      "ኤ": 1092,
      "እ": 1093,
      "ኦ": 1094,
      "ካ": 1095,
      "ክ": 1096,
      "ዋ": 1097,
      "ው": 1098,
      "ዓ": 1099,
      "ዕ": 1100,
      "የ": 1101,
      "ይ": 1102,
      "ደ": 1103,
      "ዲ": 1104,
      "ድ": 1105,
      "ገ": 1106,
      "ጋ": 1107,
      "ጨ": 1108,
      "ጽ": 1109,
      "ፅ": 1110,
      "ፈ": 1111,
      "ፍ": 1112,
      "፣": 1113,
      "Ꭰ": 1114,
      "Ꭲ": 1115,
      "Ꮊ": 1116,
      "ᐃ": 1117,
      "ᐊ": 1118,
      "ᑦ": 1119,
      "ᑲ": 1120,
      "ᒃ": 1121,
      "ᒥ": 1122,
      "ᓄ": 1123,
      "ᓕ": 1124,
      "ដ": 1125,
      "ឋ": 1126,
      "រ": 1127,
      "ស": 1128,
      "ហ": 1129,
      "្": 1130,
      "ḇ": 1131,
      "ḍ": 1132,
      "ḏ": 1133,
      "ḗ": 1134,
      "Ḥ": 1135,
      "ḥ": 1136,
      "Ḫ": 1137,
      "ḫ": 1138,
      "ḳ": 1139,
      "ḷ": 1140,
      "ḿ": 1141,
      "ṃ": 1142,
      "ṅ": 1143,
      "ṇ": 1144,
      "ṉ": 1145,
      "ṛ": 1146,
      "ṣ": 1147,
      "Ṭ": 1148,
      "ṭ": 1149,
      "Ṯ": 1150,
      "ṳ": 1151,
      "ẋ": 1152,
      "ạ": 1153,
      "ả": 1154,
      "ấ": 1155,
      "ầ": 1156,
      "ẩ": 1157,
      "ậ": 1158,
      "ắ": 1159,
      "ằ": 1160,
      "Ẳ": 1161,
      "ẵ": 1162,
      "ặ": 1163,
      "ẻ": 1164,
      "ẽ": 1165,
      "ế": 1166,
      "ề": 1167,
      "ể": 1168,
      "ễ": 1169,
      "ệ": 1170,
      "ỉ": 1171,
      "ị": 1172,
      "Ọ": 1173,
      "ọ": 1174,
      "ỏ": 1175,
      "ố": 1176,
      "ồ": 1177,
      "ổ": 1178,
      "ộ": 1179,
      "ớ": 1180,
      "ờ": 1181,
      "ở": 1182,
      "ỡ": 1183,
      "ợ": 1184,
      "ụ": 1185,
      "ủ": 1186,
      "ứ": 1187,
      "ừ": 1188,
      "ử": 1189,
      "ữ": 1190,
      "ự": 1191,
      "ỳ": 1192,
      "ỹ": 1193,
      "ἀ": 1194,
      "ἁ": 1195,
      "ἄ": 1196,
      "ἅ": 1197,
      "Ἀ": 1198,
      "ἐ": 1199,
      "ἑ": 1200,
      "ἔ": 1201,
      "Ἔ": 1202,
      "ἠ": 1203,
      "ἡ": 1204,
      "ἦ": 1205,
      "Ἡ": 1206,
      "Ἥ": 1207,
      "ἰ": 1208,
      "Ἱ": 1209,
      "ὁ": 1210,
      "ὄ": 1211,
      "Ὑ": 1212,
      "ά": 1213,
      "ὶ": 1214,
      "ὺ": 1215,
      "ῆ": 1216,
      "ῑ": 1217,
      "ῖ": 1218,
      "ῥ": 1219,
      "ῦ": 1220,
      "​": 1221,
      "‌": 1222,
      "‍": 1223,
      "‎": 1224,
      "‏": 1225,
      "‐": 1226,
      "‑": 1227,
      "‒": 1228,
      "–": 1229,
      "—": 1230,
      "―": 1231,
      "‖": 1232,
      "‘": 1233,
      "’": 1234,
      "‚": 1235,
      "‛": 1236,
      "“": 1237,
      "”": 1238,
      "„": 1239,
      "‟": 1240,
      "†": 1241,
      "‡": 1242,
      "•": 1243,
      "…": 1244,
      "‪": 1245,
      "‬": 1246,
      "‭": 1247,
      "‰": 1248,
      "′": 1249,
      "″": 1250,
      "‶": 1251,
      "‹": 1252,
      "›": 1253,
      "※": 1254,
      "‼": 1255,
      "‽": 1256,
      "⁄": 1257,
      "⁴": 1258,
      "ⁿ": 1259,
      "₁": 1260,
      "₂": 1261,
      "₠": 1262,
      "₣": 1263,
      "₤": 1264,
      "₩": 1265,
      "₪": 1266,
      "€": 1267,
      "₴": 1268,
      "₵": 1269,
      "⃛": 1270,
      "℃": 1271,
      "ℓ": 1272,
      "℔": 1273,
      "№": 1274,
      "™": 1275,
      "Ω": 1276,
      "℮": 1277,
      "⅓": 1278,
      "⅔": 1279,
      "⅛": 1280,
      "⅞": 1281,
      "Ⅱ": 1282,
      "Ⅲ": 1283,
      "←": 1284,
      "↑": 1285,
      "→": 1286,
      "↓": 1287,
      "↔": 1288,
      "↧": 1289,
      "⇒": 1290,
      "⇔": 1291,
      "⇗": 1292,
      "⇢": 1293,
      "∀": 1294,
      "∃": 1295,
      "∈": 1296,
      "∑": 1297,
      "−": 1298,
      "∙": 1299,
      "√": 1300,
      "∞": 1301,
      "∫": 1302,
      "∴": 1303,
      "∶": 1304,
      "∼": 1305,
      "≈": 1306,
      "≠": 1307,
      "≡": 1308,
      "≤": 1309,
      "≥": 1310,
      "≪": 1311,
      "≫": 1312,
      "⋅": 1313,
      "⌃": 1314,
      "⌘": 1315,
      "①": 1316,
      "②": 1317,
      "③": 1318,
      "─": 1319,
      "│": 1320,
      "┌": 1321,
      "┐": 1322,
      "└": 1323,
      "┘": 1324,
      "┬": 1325,
      "┴": 1326,
      "╚": 1327,
      "╞": 1328,
      "╩": 1329,
      "█": 1330,
      "░": 1331,
      "▒": 1332,
      "■": 1333,
      "□": 1334,
      "▪": 1335,
      "▲": 1336,
      "△": 1337,
      "▸": 1338,
      "►": 1339,
      "▼": 1340,
      "◆": 1341,
      "◇": 1342,
      "◈": 1343,
      "◊": 1344,
      "○": 1345,
      "◎": 1346,
      "●": 1347,
      "◙": 1348,
      "◦": 1349,
      "★": 1350,
      "☆": 1351,
      "☎": 1352,
      "☏": 1353,
      "☑": 1354,
      "☯": 1355,
      "☺": 1356,
      "☻": 1357,
      "☼": 1358,
      "♀": 1359,
      "♂": 1360,
      "♠": 1361,
      "♣": 1362,
      "♥": 1363,
      "♦": 1364,
      "♪": 1365,
      "♫": 1366,
      "✿": 1367,
      "➔": 1368,
      "➚": 1369,
      "➟": 1370,
      "➲": 1371,
      "Ⰶ": 1372,
      "ⲉ": 1373,
      "ⲟ": 1374,
      "Ⲡ": 1375,
      "ⲣ": 1376,
      "ⲩ": 1377,
      "、": 1378,
      "。": 1379,
      "々": 1380,
      "《": 1381,
      "》": 1382,
      "「": 1383,
      "」": 1384,
      "『": 1385,
      "』": 1386,
      "【": 1387,
      "】": 1388,
      "〔": 1389,
      "〕": 1390,
      "〜": 1391,
      "ぁ": 1392,
      "あ": 1393,
      "ぃ": 1394,
      "い": 1395,
      "う": 1396,
      "ぇ": 1397,
      "え": 1398,
      "お": 1399,
      "か": 1400,
      "が": 1401,
      "き": 1402,
      "ぎ": 1403,
      "く": 1404,
      "ぐ": 1405,
      "け": 1406,
      "げ": 1407,
      "こ": 1408,
      "ご": 1409,
      "さ": 1410,
      "ざ": 1411,
      "し": 1412,
      "じ": 1413,
      "す": 1414,
      "ず": 1415,
      "せ": 1416,
      "ぜ": 1417,
      "そ": 1418,
      "ぞ": 1419,
      "た": 1420,
      "だ": 1421,
      "ち": 1422,
      "ぢ": 1423,
      "っ": 1424,
      "つ": 1425,
      "づ": 1426,
      "て": 1427,
      "で": 1428,
      "と": 1429,
      "ど": 1430,
      "な": 1431,
      "に": 1432,
      "ぬ": 1433,
      "ね": 1434,
      "の": 1435,
      "は": 1436,
      "ば": 1437,
      "ひ": 1438,
      "び": 1439,
      "ふ": 1440,
      "ぶ": 1441,
      "ぷ": 1442,
      "へ": 1443,
      "べ": 1444,
      "ほ": 1445,
      "ぼ": 1446,
      "ま": 1447,
      "み": 1448,
      "む": 1449,
      "め": 1450,
      "も": 1451,
      "ゃ": 1452,
      "や": 1453,
      "ゅ": 1454,
      "ゆ": 1455,
      "ょ": 1456,
      "よ": 1457,
      "ら": 1458,
      "り": 1459,
      "る": 1460,
      "れ": 1461,
      "ろ": 1462,
      "わ": 1463,
      "ゐ": 1464,
      "ゑ": 1465,
      "を": 1466,
      "ん": 1467,
      "ゔ": 1468,
      "゛": 1469,
      "゜": 1470,
      "ァ": 1471,
      "ア": 1472,
      "ィ": 1473,
      "イ": 1474,
      "ゥ": 1475,
      "ウ": 1476,
      "ェ": 1477,
      "エ": 1478,
      "ォ": 1479,
      "オ": 1480,
      "カ": 1481,
      "ガ": 1482,
      "キ": 1483,
      "ギ": 1484,
      "ク": 1485,
      "グ": 1486,
      "ケ": 1487,
      "ゲ": 1488,
      "コ": 1489,
      "ゴ": 1490,
      "サ": 1491,
      "ザ": 1492,
      "シ": 1493,
      "ジ": 1494,
      "ス": 1495,
      "ズ": 1496,
      "セ": 1497,
      "ゼ": 1498,
      "ソ": 1499,
      "ゾ": 1500,
      "タ": 1501,
      "ダ": 1502,
      "チ": 1503,
      "ッ": 1504,
      "ツ": 1505,
      "テ": 1506,
      "デ": 1507,
      "ト": 1508,
      "ド": 1509,
      "ナ": 1510,
      "ニ": 1511,
      "ヌ": 1512,
      "ネ": 1513,
      "ノ": 1514,
      "ハ": 1515,
      "バ": 1516,
      "パ": 1517,
      "ヒ": 1518,
      "ビ": 1519,
      "ピ": 1520,
      "フ": 1521,
      "ブ": 1522,
      "プ": 1523,
      "ヘ": 1524,
      "ベ": 1525,
      "ペ": 1526,
      "ホ": 1527,
      "ボ": 1528,
      "ポ": 1529,
      "マ": 1530,
      "ミ": 1531,
      "ム": 1532,
      "メ": 1533,
      "モ": 1534,
      "ャ": 1535,
      "ヤ": 1536,
      "ュ": 1537,
      "ユ": 1538,
      "ョ": 1539,
      "ヨ": 1540,
      "ラ": 1541,
      "リ": 1542,
      "ル": 1543,
      "レ": 1544,
      "ロ": 1545,
      "ワ": 1546,
      "ン": 1547,
      "ヴ": 1548,
      "・": 1549,
      "ー": 1550,
      "ㄅ": 1551,
      "ㄆ": 1552,
      "ㄇ": 1553,
      "ㄈ": 1554,
      "ㄤ": 1555,
      "ㄧ": 1556,
      "ㅓ": 1557,
      "ㅔ": 1558,
      "ㅕ": 1559,
      "ㅖ": 1560,
      "ㅡ": 1561,
      "ㅣ": 1562,
      "㎡": 1563,
      "䟩": 1564,
      "一": 1565,
      "七": 1566,
      "万": 1567,
      "丈": 1568,
      "三": 1569,
      "上": 1570,
      "下": 1571,
      "不": 1572,
      "与": 1573,
      "专": 1574,
      "世": 1575,
      "丘": 1576,
      "业": 1577,
      "东": 1578,
      "两": 1579,
      "严": 1580,
      "丨": 1581,
      "个": 1582,
      "中": 1583,
      "丰": 1584,
      "临": 1585,
      "丸": 1586,
      "丹": 1587,
      "为": 1588,
      "主": 1589,
      "丼": 1590,
      "丽": 1591,
      "举": 1592,
      "久": 1593,
      "么": 1594,
      "义": 1595,
      "之": 1596,
      "乌": 1597,
      "乎": 1598,
      "乏": 1599,
      "乐": 1600,
      "乗": 1601,
      "乘": 1602,
      "乙": 1603,
      "九": 1604,
      "也": 1605,
      "习": 1606,
      "乡": 1607,
      "书": 1608,
      "买": 1609,
      "乱": 1610,
      "乾": 1611,
      "了": 1612,
      "争": 1613,
      "事": 1614,
      "二": 1615,
      "于": 1616,
      "云": 1617,
      "互": 1618,
      "五": 1619,
      "井": 1620,
      "亚": 1621,
      "些": 1622,
      "亜": 1623,
      "亞": 1624,
      "交": 1625,
      "产": 1626,
      "亨": 1627,
      "京": 1628,
      "人": 1629,
      "亿": 1630,
      "什": 1631,
      "仁": 1632,
      "仅": 1633,
      "今": 1634,
      "介": 1635,
      "仍": 1636,
      "从": 1637,
      "他": 1638,
      "付": 1639,
      "仙": 1640,
      "仝": 1641,
      "代": 1642,
      "以": 1643,
      "仪": 1644,
      "们": 1645,
      "仮": 1646,
      "仲": 1647,
      "件": 1648,
      "价": 1649,
      "任": 1650,
      "伊": 1651,
      "伎": 1652,
      "伏": 1653,
      "伐": 1654,
      "休": 1655,
      "众": 1656,
      "优": 1657,
      "会": 1658,
      "伝": 1659,
      "伟": 1660,
      "传": 1661,
      "伦": 1662,
      "伯": 1663,
      "估": 1664,
      "伴": 1665,
      "伸": 1666,
      "似": 1667,
      "但": 1668,
      "位": 1669,
      "低": 1670,
      "住": 1671,
      "佐": 1672,
      "佑": 1673,
      "体": 1674,
      "何": 1675,
      "佗": 1676,
      "余": 1677,
      "作": 1678,
      "你": 1679,
      "佰": 1680,
      "使": 1681,
      "例": 1682,
      "侍": 1683,
      "供": 1684,
      "依": 1685,
      "便": 1686,
      "俄": 1687,
      "俊": 1688,
      "保": 1689,
      "信": 1690,
      "修": 1691,
      "倉": 1692,
      "個": 1693,
      "倍": 1694,
      "倒": 1695,
      "候": 1696,
      "值": 1697,
      "假": 1698,
      "做": 1699,
      "健": 1700,
      "側": 1701,
      "備": 1702,
      "储": 1703,
      "傳": 1704,
      "傷": 1705,
      "働": 1706,
      "像": 1707,
      "僕": 1708,
      "儀": 1709,
      "儉": 1710,
      "元": 1711,
      "先": 1712,
      "光": 1713,
      "克": 1714,
      "免": 1715,
      "入": 1716,
      "內": 1717,
      "全": 1718,
      "兩": 1719,
      "八": 1720,
      "公": 1721,
      "六": 1722,
      "兰": 1723,
      "共": 1724,
      "关": 1725,
      "兴": 1726,
      "兵": 1727,
      "其": 1728,
      "具": 1729,
      "养": 1730,
      "兽": 1731,
      "内": 1732,
      "円": 1733,
      "冊": 1734,
      "册": 1735,
      "再": 1736,
      "写": 1737,
      "军": 1738,
      "农": 1739,
      "冤": 1740,
      "冰": 1741,
      "决": 1742,
      "况": 1743,
      "冷": 1744,
      "净": 1745,
      "凄": 1746,
      "准": 1747,
      "凉": 1748,
      "凍": 1749,
      "减": 1750,
      "几": 1751,
      "凶": 1752,
      "凸": 1753,
      "出": 1754,
      "函": 1755,
      "刀": 1756,
      "分": 1757,
      "切": 1758,
      "刑": 1759,
      "列": 1760,
      "刘": 1761,
      "则": 1762,
      "刚": 1763,
      "创": 1764,
      "判": 1765,
      "別": 1766,
      "刨": 1767,
      "利": 1768,
      "别": 1769,
      "到": 1770,
      "制": 1771,
      "刺": 1772,
      "則": 1773,
      "前": 1774,
      "剑": 1775,
      "剣": 1776,
      "剥": 1777,
      "剧": 1778,
      "剩": 1779,
      "副": 1780,
      "割": 1781,
      "創": 1782,
      "劇": 1783,
      "劉": 1784,
      "力": 1785,
      "功": 1786,
      "加": 1787,
      "务": 1788,
      "动": 1789,
      "助": 1790,
      "努": 1791,
      "劳": 1792,
      "势": 1793,
      "動": 1794,
      "勝": 1795,
      "勞": 1796,
      "勢": 1797,
      "勧": 1798,
      "勿": 1799,
      "包": 1800,
      "化": 1801,
      "北": 1802,
      "匠": 1803,
      "匡": 1804,
      "匹": 1805,
      "区": 1806,
      "医": 1807,
      "匿": 1808,
      "區": 1809,
      "十": 1810,
      "千": 1811,
      "升": 1812,
      "半": 1813,
      "卍": 1814,
      "华": 1815,
      "协": 1816,
      "卐": 1817,
      "卓": 1818,
      "单": 1819,
      "卖": 1820,
      "南": 1821,
      "博": 1822,
      "卡": 1823,
      "卦": 1824,
      "卫": 1825,
      "印": 1826,
      "危": 1827,
      "即": 1828,
      "却": 1829,
      "厂": 1830,
      "原": 1831,
      "去": 1832,
      "县": 1833,
      "参": 1834,
      "參": 1835,
      "及": 1836,
      "友": 1837,
      "双": 1838,
      "反": 1839,
      "发": 1840,
      "取": 1841,
      "受": 1842,
      "变": 1843,
      "叡": 1844,
      "口": 1845,
      "古": 1846,
      "另": 1847,
      "只": 1848,
      "叫": 1849,
      "召": 1850,
      "可": 1851,
      "台": 1852,
      "史": 1853,
      "右": 1854,
      "号": 1855,
      "司": 1856,
      "吃": 1857,
      "各": 1858,
      "合": 1859,
      "吉": 1860,
      "吊": 1861,
      "同": 1862,
      "名": 1863,
      "后": 1864,
      "向": 1865,
      "吗": 1866,
      "君": 1867,
      "否": 1868,
      "吧": 1869,
      "吨": 1870,
      "含": 1871,
      "听": 1872,
      "吳": 1873,
      "吴": 1874,
      "吸": 1875,
      "吹": 1876,
      "吾": 1877,
      "呀": 1878,
      "呂": 1879,
      "呆": 1880,
      "呉": 1881,
      "告": 1882,
      "呑": 1883,
      "员": 1884,
      "周": 1885,
      "味": 1886,
      "呼": 1887,
      "命": 1888,
      "咆": 1889,
      "和": 1890,
      "咬": 1891,
      "品": 1892,
      "哈": 1893,
      "响": 1894,
      "員": 1895,
      "哥": 1896,
      "哮": 1897,
      "哲": 1898,
      "唐": 1899,
      "售": 1900,
      "唸": 1901,
      "商": 1902,
      "問": 1903,
      "啤": 1904,
      "啦": 1905,
      "喀": 1906,
      "喂": 1907,
      "善": 1908,
      "喇": 1909,
      "喜": 1910,
      "喫": 1911,
      "嗣": 1912,
      "嘉": 1913,
      "嘛": 1914,
      "嘟": 1915,
      "噌": 1916,
      "噛": 1917,
      "器": 1918,
      "嚴": 1919,
      "四": 1920,
      "回": 1921,
      "因": 1922,
      "団": 1923,
      "囧": 1924,
      "园": 1925,
      "困": 1926,
      "固": 1927,
      "国": 1928,
      "图": 1929,
      "圆": 1930,
      "國": 1931,
      "圍": 1932,
      "圏": 1933,
      "園": 1934,
      "圓": 1935,
      "圖": 1936,
      "土": 1937,
      "在": 1938,
      "地": 1939,
      "圳": 1940,
      "场": 1941,
      "址": 1942,
      "坂": 1943,
      "均": 1944,
      "坊": 1945,
      "坐": 1946,
      "块": 1947,
      "坛": 1948,
      "坝": 1949,
      "坡": 1950,
      "坤": 1951,
      "坪": 1952,
      "型": 1953,
      "垣": 1954,
      "城": 1955,
      "埔": 1956,
      "域": 1957,
      "基": 1958,
      "堂": 1959,
      "堆": 1960,
      "堤": 1961,
      "堰": 1962,
      "報": 1963,
      "場": 1964,
      "塊": 1965,
      "塔": 1966,
      "塗": 1967,
      "塞": 1968,
      "塩": 1969,
      "塾": 1970,
      "増": 1971,
      "增": 1972,
      "墟": 1973,
      "墩": 1974,
      "壊": 1975,
      "士": 1976,
      "壮": 1977,
      "売": 1978,
      "壳": 1979,
      "壹": 1980,
      "壽": 1981,
      "处": 1982,
      "备": 1983,
      "変": 1984,
      "复": 1985,
      "夏": 1986,
      "夕": 1987,
      "外": 1988,
      "多": 1989,
      "夛": 1990,
      "夜": 1991,
      "够": 1992,
      "夢": 1993,
      "大": 1994,
      "天": 1995,
      "太": 1996,
      "夫": 1997,
      "央": 1998,
      "头": 1999,
      "夷": 2000,
      "夹": 2001,
      "奄": 2002,
      "奇": 2003,
      "奈": 2004,
      "奉": 2005,
      "套": 2006,
      "奘": 2007,
      "奚": 2008,
      "奥": 2009,
      "女": 2010,
      "奶": 2011,
      "奸": 2012,
      "好": 2013,
      "如": 2014,
      "妖": 2015,
      "妤": 2016,
      "妨": 2017,
      "妻": 2018,
      "姆": 2019,
      "始": 2020,
      "委": 2021,
      "姦": 2022,
      "威": 2023,
      "娃": 2024,
      "娄": 2025,
      "娜": 2026,
      "娣": 2027,
      "娥": 2028,
      "娱": 2029,
      "婁": 2030,
      "婦": 2031,
      "婷": 2032,
      "媛": 2033,
      "嫌": 2034,
      "子": 2035,
      "字": 2036,
      "存": 2037,
      "季": 2038,
      "学": 2039,
      "孴": 2040,
      "學": 2041,
      "宁": 2042,
      "它": 2043,
      "宇": 2044,
      "安": 2045,
      "宋": 2046,
      "完": 2047,
      "宏": 2048,
      "宗": 2049,
      "官": 2050,
      "定": 2051,
      "宜": 2052,
      "宝": 2053,
      "实": 2054,
      "実": 2055,
      "客": 2056,
      "宣": 2057,
      "室": 2058,
      "宫": 2059,
      "宮": 2060,
      "宰": 2061,
      "家": 2062,
      "容": 2063,
      "宿": 2064,
      "寄": 2065,
      "密": 2066,
      "富": 2067,
      "寤": 2068,
      "實": 2069,
      "寧": 2070,
      "寨": 2071,
      "寳": 2072,
      "寶": 2073,
      "寸": 2074,
      "对": 2075,
      "寺": 2076,
      "寻": 2077,
      "寿": 2078,
      "専": 2079,
      "将": 2080,
      "小": 2081,
      "少": 2082,
      "尔": 2083,
      "尘": 2084,
      "就": 2085,
      "尽": 2086,
      "尾": 2087,
      "尿": 2088,
      "局": 2089,
      "屄": 2090,
      "居": 2091,
      "屈": 2092,
      "届": 2093,
      "屋": 2094,
      "屏": 2095,
      "展": 2096,
      "属": 2097,
      "屯": 2098,
      "山": 2099,
      "屿": 2100,
      "岐": 2101,
      "岗": 2102,
      "岛": 2103,
      "岡": 2104,
      "岩": 2105,
      "岭": 2106,
      "岳": 2107,
      "岷": 2108,
      "岸": 2109,
      "島": 2110,
      "峻": 2111,
      "峽": 2112,
      "崎": 2113,
      "崔": 2114,
      "崖": 2115,
      "崩": 2116,
      "嵥": 2117,
      "嶺": 2118,
      "嶼": 2119,
      "川": 2120,
      "州": 2121,
      "工": 2122,
      "左": 2123,
      "巧": 2124,
      "巨": 2125,
      "差": 2126,
      "己": 2127,
      "已": 2128,
      "巴": 2129,
      "巻": 2130,
      "市": 2131,
      "布": 2132,
      "师": 2133,
      "希": 2134,
      "帝": 2135,
      "帥": 2136,
      "带": 2137,
      "師": 2138,
      "席": 2139,
      "帯": 2140,
      "常": 2141,
      "幌": 2142,
      "幡": 2143,
      "幣": 2144,
      "干": 2145,
      "平": 2146,
      "年": 2147,
      "并": 2148,
      "幸": 2149,
      "幹": 2150,
      "幾": 2151,
      "广": 2152,
      "庁": 2153,
      "広": 2154,
      "庄": 2155,
      "庆": 2156,
      "序": 2157,
      "库": 2158,
      "应": 2159,
      "底": 2160,
      "店": 2161,
      "庚": 2162,
      "府": 2163,
      "废": 2164,
      "度": 2165,
      "座": 2166,
      "庫": 2167,
      "庭": 2168,
      "康": 2169,
      "廃": 2170,
      "廣": 2171,
      "建": 2172,
      "开": 2173,
      "弁": 2174,
      "异": 2175,
      "弄": 2176,
      "式": 2177,
      "弓": 2178,
      "弔": 2179,
      "引": 2180,
      "张": 2181,
      "弦": 2182,
      "張": 2183,
      "强": 2184,
      "当": 2185,
      "形": 2186,
      "彩": 2187,
      "彭": 2188,
      "彰": 2189,
      "影": 2190,
      "役": 2191,
      "彻": 2192,
      "彼": 2193,
      "征": 2194,
      "待": 2195,
      "很": 2196,
      "律": 2197,
      "後": 2198,
      "徐": 2199,
      "徒": 2200,
      "得": 2201,
      "御": 2202,
      "復": 2203,
      "循": 2204,
      "微": 2205,
      "徳": 2206,
      "德": 2207,
      "徹": 2208,
      "徽": 2209,
      "心": 2210,
      "必": 2211,
      "忆": 2212,
      "忍": 2213,
      "志": 2214,
      "忘": 2215,
      "応": 2216,
      "忠": 2217,
      "快": 2218,
      "念": 2219,
      "忻": 2220,
      "忽": 2221,
      "态": 2222,
      "怒": 2223,
      "思": 2224,
      "怡": 2225,
      "急": 2226,
      "性": 2227,
      "怪": 2228,
      "总": 2229,
      "恋": 2230,
      "恢": 2231,
      "恩": 2232,
      "息": 2233,
      "恵": 2234,
      "悟": 2235,
      "悠": 2236,
      "患": 2237,
      "您": 2238,
      "悩": 2239,
      "悪": 2240,
      "悬": 2241,
      "情": 2242,
      "惑": 2243,
      "惠": 2244,
      "惧": 2245,
      "惯": 2246,
      "想": 2247,
      "意": 2248,
      "愛": 2249,
      "感": 2250,
      "慈": 2251,
      "態": 2252,
      "慎": 2253,
      "慢": 2254,
      "慣": 2255,
      "慶": 2256,
      "憎": 2257,
      "憨": 2258,
      "憩": 2259,
      "憶": 2260,
      "憾": 2261,
      "應": 2262,
      "成": 2263,
      "我": 2264,
      "戒": 2265,
      "或": 2266,
      "战": 2267,
      "截": 2268,
      "戴": 2269,
      "戶": 2270,
      "户": 2271,
      "戸": 2272,
      "戻": 2273,
      "房": 2274,
      "所": 2275,
      "扈": 2276,
      "手": 2277,
      "才": 2278,
      "打": 2279,
      "払": 2280,
      "找": 2281,
      "承": 2282,
      "技": 2283,
      "投": 2284,
      "抗": 2285,
      "折": 2286,
      "抜": 2287,
      "护": 2288,
      "报": 2289,
      "抵": 2290,
      "抹": 2291,
      "押": 2292,
      "担": 2293,
      "拉": 2294,
      "拒": 2295,
      "拓": 2296,
      "招": 2297,
      "拟": 2298,
      "择": 2299,
      "括": 2300,
      "拳": 2301,
      "拼": 2302,
      "拿": 2303,
      "持": 2304,
      "挂": 2305,
      "指": 2306,
      "按": 2307,
      "挑": 2308,
      "挠": 2309,
      "挡": 2310,
      "振": 2311,
      "损": 2312,
      "据": 2313,
      "捷": 2314,
      "掉": 2315,
      "排": 2316,
      "掛": 2317,
      "採": 2318,
      "探": 2319,
      "接": 2320,
      "控": 2321,
      "推": 2322,
      "措": 2323,
      "掻": 2324,
      "揂": 2325,
      "揃": 2326,
      "提": 2327,
      "揚": 2328,
      "換": 2329,
      "握": 2330,
      "援": 2331,
      "搅": 2332,
      "損": 2333,
      "搜": 2334,
      "搞": 2335,
      "携": 2336,
      "摂": 2337,
      "摆": 2338,
      "摇": 2339,
      "摩": 2340,
      "撒": 2341,
      "撤": 2342,
      "撫": 2343,
      "播": 2344,
      "撮": 2345,
      "操": 2346,
      "支": 2347,
      "收": 2348,
      "改": 2349,
      "攻": 2350,
      "放": 2351,
      "政": 2352,
      "故": 2353,
      "效": 2354,
      "敏": 2355,
      "救": 2356,
      "教": 2357,
      "散": 2358,
      "敦": 2359,
      "敬": 2360,
      "数": 2361,
      "整": 2362,
      "文": 2363,
      "斗": 2364,
      "料": 2365,
      "斯": 2366,
      "新": 2367,
      "方": 2368,
      "施": 2369,
      "旅": 2370,
      "旋": 2371,
      "族": 2372,
      "无": 2373,
      "日": 2374,
      "旧": 2375,
      "旨": 2376,
      "旭": 2377,
      "旱": 2378,
      "时": 2379,
      "昇": 2380,
      "昌": 2381,
      "明": 2382,
      "易": 2383,
      "星": 2384,
      "映": 2385,
      "春": 2386,
      "昭": 2387,
      "是": 2388,
      "显": 2389,
      "時": 2390,
      "晏": 2391,
      "晨": 2392,
      "普": 2393,
      "景": 2394,
      "智": 2395,
      "暂": 2396,
      "暨": 2397,
      "暫": 2398,
      "暴": 2399,
      "曌": 2400,
      "曝": 2401,
      "更": 2402,
      "書": 2403,
      "曹": 2404,
      "曾": 2405,
      "最": 2406,
      "會": 2407,
      "月": 2408,
      "有": 2409,
      "服": 2410,
      "朔": 2411,
      "朗": 2412,
      "望": 2413,
      "朝": 2414,
      "期": 2415,
      "木": 2416,
      "未": 2417,
      "末": 2418,
      "本": 2419,
      "札": 2420,
      "术": 2421,
      "朱": 2422,
      "机": 2423,
      "杂": 2424,
      "李": 2425,
      "杏": 2426,
      "材": 2427,
      "村": 2428,
      "束": 2429,
      "条": 2430,
      "来": 2431,
      "杨": 2432,
      "杭": 2433,
      "東": 2434,
      "松": 2435,
      "板": 2436,
      "极": 2437,
      "构": 2438,
      "析": 2439,
      "林": 2440,
      "枚": 2441,
      "果": 2442,
      "枡": 2443,
      "枫": 2444,
      "架": 2445,
      "某": 2446,
      "染": 2447,
      "柔": 2448,
      "查": 2449,
      "柱": 2450,
      "柴": 2451,
      "标": 2452,
      "树": 2453,
      "校": 2454,
      "株": 2455,
      "样": 2456,
      "核": 2457,
      "根": 2458,
      "格": 2459,
      "栽": 2460,
      "桂": 2461,
      "桃": 2462,
      "框": 2463,
      "案": 2464,
      "桓": 2465,
      "桜": 2466,
      "桥": 2467,
      "桩": 2468,
      "桶": 2469,
      "梁": 2470,
      "梅": 2471,
      "梨": 2472,
      "械": 2473,
      "检": 2474,
      "棒": 2475,
      "森": 2476,
      "棲": 2477,
      "椅": 2478,
      "植": 2479,
      "検": 2480,
      "楠": 2481,
      "業": 2482,
      "極": 2483,
      "楼": 2484,
      "楽": 2485,
      "樓": 2486,
      "標": 2487,
      "模": 2488,
      "横": 2489,
      "樱": 2490,
      "樹": 2491,
      "橋": 2492,
      "機": 2493,
      "橿": 2494,
      "檀": 2495,
      "次": 2496,
      "欢": 2497,
      "欧": 2498,
      "款": 2499,
      "歌": 2500,
      "止": 2501,
      "正": 2502,
      "此": 2503,
      "步": 2504,
      "武": 2505,
      "歩": 2506,
      "歳": 2507,
      "歸": 2508,
      "死": 2509,
      "殊": 2510,
      "段": 2511,
      "殷": 2512,
      "殻": 2513,
      "殿": 2514,
      "毁": 2515,
      "母": 2516,
      "毎": 2517,
      "每": 2518,
      "毓": 2519,
      "比": 2520,
      "毛": 2521,
      "氏": 2522,
      "民": 2523,
      "气": 2524,
      "気": 2525,
      "氣": 2526,
      "氧": 2527,
      "氮": 2528,
      "水": 2529,
      "氷": 2530,
      "永": 2531,
      "汁": 2532,
      "求": 2533,
      "汇": 2534,
      "汉": 2535,
      "汕": 2536,
      "江": 2537,
      "池": 2538,
      "汤": 2539,
      "汴": 2540,
      "決": 2541,
      "沈": 2542,
      "沌": 2543,
      "沙": 2544,
      "沛": 2545,
      "没": 2546,
      "沢": 2547,
      "沪": 2548,
      "沱": 2549,
      "河": 2550,
      "油": 2551,
      "治": 2552,
      "沿": 2553,
      "況": 2554,
      "泄": 2555,
      "泉": 2556,
      "泊": 2557,
      "法": 2558,
      "波": 2559,
      "泥": 2560,
      "注": 2561,
      "泰": 2562,
      "泽": 2563,
      "洁": 2564,
      "洋": 2565,
      "洒": 2566,
      "洗": 2567,
      "洛": 2568,
      "洞": 2569,
      "洪": 2570,
      "洲": 2571,
      "活": 2572,
      "派": 2573,
      "流": 2574,
      "浄": 2575,
      "测": 2576,
      "济": 2577,
      "浙": 2578,
      "浜": 2579,
      "浦": 2580,
      "浮": 2581,
      "浴": 2582,
      "海": 2583,
      "涂": 2584,
      "消": 2585,
      "涌": 2586,
      "涩": 2587,
      "淡": 2588,
      "淫": 2589,
      "深": 2590,
      "混": 2591,
      "淹": 2592,
      "清": 2593,
      "済": 2594,
      "渋": 2595,
      "渐": 2596,
      "減": 2597,
      "渝": 2598,
      "渡": 2599,
      "温": 2600,
      "港": 2601,
      "渲": 2602,
      "渴": 2603,
      "游": 2604,
      "湄": 2605,
      "湖": 2606,
      "湘": 2607,
      "湯": 2608,
      "湾": 2609,
      "満": 2610,
      "溉": 2611,
      "源": 2612,
      "溜": 2613,
      "溝": 2614,
      "溢": 2615,
      "溥": 2616,
      "溪": 2617,
      "溫": 2618,
      "溯": 2619,
      "溶": 2620,
      "滇": 2621,
      "滞": 2622,
      "滨": 2623,
      "滬": 2624,
      "漢": 2625,
      "漫": 2626,
      "潜": 2627,
      "潟": 2628,
      "潢": 2629,
      "潭": 2630,
      "潮": 2631,
      "澄": 2632,
      "澎": 2633,
      "澤": 2634,
      "澳": 2635,
      "激": 2636,
      "濟": 2637,
      "濱": 2638,
      "灌": 2639,
      "灣": 2640,
      "火": 2641,
      "灯": 2642,
      "灰": 2643,
      "灾": 2644,
      "炎": 2645,
      "炯": 2646,
      "点": 2647,
      "為": 2648,
      "烈": 2649,
      "烏": 2650,
      "烦": 2651,
      "烧": 2652,
      "热": 2653,
      "無": 2654,
      "焦": 2655,
      "然": 2656,
      "焼": 2657,
      "煙": 2658,
      "照": 2659,
      "煩": 2660,
      "煮": 2661,
      "熊": 2662,
      "熟": 2663,
      "熨": 2664,
      "熱": 2665,
      "燃": 2666,
      "燕": 2667,
      "燗": 2668,
      "爆": 2669,
      "爛": 2670,
      "爪": 2671,
      "爱": 2672,
      "父": 2673,
      "爻": 2674,
      "爾": 2675,
      "片": 2676,
      "版": 2677,
      "牌": 2678,
      "牙": 2679,
      "牛": 2680,
      "物": 2681,
      "特": 2682,
      "状": 2683,
      "狐": 2684,
      "狗": 2685,
      "独": 2686,
      "狭": 2687,
      "猛": 2688,
      "猪": 2689,
      "献": 2690,
      "獄": 2691,
      "獲": 2692,
      "玄": 2693,
      "率": 2694,
      "玉": 2695,
      "王": 2696,
      "环": 2697,
      "现": 2698,
      "玲": 2699,
      "珈": 2700,
      "珍": 2701,
      "珠": 2702,
      "班": 2703,
      "球": 2704,
      "理": 2705,
      "琢": 2706,
      "琲": 2707,
      "瑠": 2708,
      "瑩": 2709,
      "璃": 2710,
      "璐": 2711,
      "環": 2712,
      "瓊": 2713,
      "瓶": 2714,
      "甜": 2715,
      "生": 2716,
      "用": 2717,
      "田": 2718,
      "由": 2719,
      "甲": 2720,
      "申": 2721,
      "电": 2722,
      "男": 2723,
      "甸": 2724,
      "町": 2725,
      "画": 2726,
      "界": 2727,
      "留": 2728,
      "畢": 2729,
      "略": 2730,
      "番": 2731,
      "畿": 2732,
      "疆": 2733,
      "疏": 2734,
      "疑": 2735,
      "疗": 2736,
      "疫": 2737,
      "病": 2738,
      "痛": 2739,
      "痴": 2740,
      "瘤": 2741,
      "癌": 2742,
      "癪": 2743,
      "発": 2744,
      "登": 2745,
      "白": 2746,
      "百": 2747,
      "的": 2748,
      "皇": 2749,
      "皮": 2750,
      "盆": 2751,
      "益": 2752,
      "盐": 2753,
      "监": 2754,
      "盖": 2755,
      "盗": 2756,
      "盛": 2757,
      "監": 2758,
      "盧": 2759,
      "目": 2760,
      "直": 2761,
      "相": 2762,
      "省": 2763,
      "看": 2764,
      "県": 2765,
      "真": 2766,
      "眩": 2767,
      "眼": 2768,
      "着": 2769,
      "睛": 2770,
      "睦": 2771,
      "瞎": 2772,
      "瞳": 2773,
      "瞻": 2774,
      "矢": 2775,
      "知": 2776,
      "短": 2777,
      "石": 2778,
      "矿": 2779,
      "码": 2780,
      "砂": 2781,
      "砕": 2782,
      "破": 2783,
      "硝": 2784,
      "硬": 2785,
      "确": 2786,
      "碁": 2787,
      "碍": 2788,
      "碧": 2789,
      "碳": 2790,
      "確": 2791,
      "磁": 2792,
      "磨": 2793,
      "磷": 2794,
      "礱": 2795,
      "示": 2796,
      "礼": 2797,
      "社": 2798,
      "祖": 2799,
      "祝": 2800,
      "神": 2801,
      "票": 2802,
      "祭": 2803,
      "祸": 2804,
      "祿": 2805,
      "禁": 2806,
      "禅": 2807,
      "福": 2808,
      "禪": 2809,
      "禹": 2810,
      "禽": 2811,
      "秀": 2812,
      "私": 2813,
      "秉": 2814,
      "秋": 2815,
      "种": 2816,
      "科": 2817,
      "租": 2818,
      "秦": 2819,
      "积": 2820,
      "称": 2821,
      "移": 2822,
      "稀": 2823,
      "稅": 2824,
      "程": 2825,
      "税": 2826,
      "稱": 2827,
      "稲": 2828,
      "稳": 2829,
      "稻": 2830,
      "稼": 2831,
      "稿": 2832,
      "穷": 2833,
      "空": 2834,
      "立": 2835,
      "站": 2836,
      "竜": 2837,
      "竞": 2838,
      "章": 2839,
      "端": 2840,
      "競": 2841,
      "竹": 2842,
      "笠": 2843,
      "第": 2844,
      "筆": 2845,
      "等": 2846,
      "筑": 2847,
      "答": 2848,
      "策": 2849,
      "签": 2850,
      "简": 2851,
      "箍": 2852,
      "箕": 2853,
      "管": 2854,
      "箱": 2855,
      "節": 2856,
      "篇": 2857,
      "簡": 2858,
      "米": 2859,
      "类": 2860,
      "粉": 2861,
      "粤": 2862,
      "粮": 2863,
      "粵": 2864,
      "精": 2865,
      "糖": 2866,
      "糸": 2867,
      "系": 2868,
      "紀": 2869,
      "紂": 2870,
      "紅": 2871,
      "紋": 2872,
      "納": 2873,
      "純": 2874,
      "紙": 2875,
      "級": 2876,
      "素": 2877,
      "索": 2878,
      "紧": 2879,
      "細": 2880,
      "紹": 2881,
      "終": 2882,
      "経": 2883,
      "結": 2884,
      "絞": 2885,
      "統": 2886,
      "經": 2887,
      "継": 2888,
      "続": 2889,
      "網": 2890,
      "綺": 2891,
      "総": 2892,
      "線": 2893,
      "縣": 2894,
      "縮": 2895,
      "繁": 2896,
      "織": 2897,
      "红": 2898,
      "约": 2899,
      "级": 2900,
      "纪": 2901,
      "纷": 2902,
      "纸": 2903,
      "纹": 2904,
      "纽": 2905,
      "线": 2906,
      "组": 2907,
      "细": 2908,
      "终": 2909,
      "绍": 2910,
      "经": 2911,
      "绝": 2912,
      "绞": 2913,
      "统": 2914,
      "绪": 2915,
      "续": 2916,
      "维": 2917,
      "缓": 2918,
      "缩": 2919,
      "缺": 2920,
      "网": 2921,
      "罗": 2922,
      "罪": 2923,
      "置": 2924,
      "署": 2925,
      "羅": 2926,
      "美": 2927,
      "群": 2928,
      "義": 2929,
      "羲": 2930,
      "羽": 2931,
      "翁": 2932,
      "習": 2933,
      "翠": 2934,
      "翻": 2935,
      "翼": 2936,
      "耀": 2937,
      "老": 2938,
      "考": 2939,
      "者": 2940,
      "而": 2941,
      "耐": 2942,
      "耕": 2943,
      "耳": 2944,
      "耶": 2945,
      "耸": 2946,
      "联": 2947,
      "聖": 2948,
      "聞": 2949,
      "聼": 2950,
      "肉": 2951,
      "股": 2952,
      "肥": 2953,
      "育": 2954,
      "胁": 2955,
      "背": 2956,
      "胖": 2957,
      "胜": 2958,
      "胞": 2959,
      "胡": 2960,
      "能": 2961,
      "脑": 2962,
      "脖": 2963,
      "脚": 2964,
      "脱": 2965,
      "腔": 2966,
      "腕": 2967,
      "腰": 2968,
      "腹": 2969,
      "腺": 2970,
      "膚": 2971,
      "臂": 2972,
      "臈": 2973,
      "臓": 2974,
      "臘": 2975,
      "臣": 2976,
      "臧": 2977,
      "臨": 2978,
      "自": 2979,
      "至": 2980,
      "致": 2981,
      "臺": 2982,
      "舁": 2983,
      "舅": 2984,
      "興": 2985,
      "舊": 2986,
      "舍": 2987,
      "舐": 2988,
      "舖": 2989,
      "舞": 2990,
      "舣": 2991,
      "舩": 2992,
      "航": 2993,
      "舫": 2994,
      "般": 2995,
      "艮": 2996,
      "良": 2997,
      "色": 2998,
      "艳": 2999,
      "节": 3000,
      "芋": 3001,
      "芝": 3002,
      "芦": 3003,
      "花": 3004,
      "苏": 3005,
      "苑": 3006,
      "若": 3007,
      "英": 3008,
      "茂": 3009,
      "茜": 3010,
      "茨": 3011,
      "茶": 3012,
      "草": 3013,
      "荣": 3014,
      "荷": 3015,
      "莉": 3016,
      "莞": 3017,
      "莨": 3018,
      "莲": 3019,
      "获": 3020,
      "莹": 3021,
      "菜": 3022,
      "菩": 3023,
      "華": 3024,
      "菱": 3025,
      "萄": 3026,
      "营": 3027,
      "萧": 3028,
      "萬": 3029,
      "落": 3030,
      "葉": 3031,
      "著": 3032,
      "葡": 3033,
      "董": 3034,
      "蒋": 3035,
      "蒸": 3036,
      "蓋": 3037,
      "蓟": 3038,
      "蓮": 3039,
      "蔓": 3040,
      "蔚": 3041,
      "蔣": 3042,
      "蕭": 3043,
      "蕴": 3044,
      "薇": 3045,
      "薊": 3046,
      "薔": 3047,
      "薬": 3048,
      "薯": 3049,
      "藍": 3050,
      "藏": 3051,
      "藕": 3052,
      "藤": 3053,
      "蘇": 3054,
      "虑": 3055,
      "號": 3056,
      "虫": 3057,
      "蛋": 3058,
      "蜀": 3059,
      "蝦": 3060,
      "融": 3061,
      "螨": 3062,
      "螳": 3063,
      "螺": 3064,
      "蟲": 3065,
      "血": 3066,
      "衆": 3067,
      "行": 3068,
      "術": 3069,
      "街": 3070,
      "衡": 3071,
      "衣": 3072,
      "表": 3073,
      "裂": 3074,
      "装": 3075,
      "裕": 3076,
      "製": 3077,
      "西": 3078,
      "要": 3079,
      "見": 3080,
      "視": 3081,
      "覧": 3082,
      "親": 3083,
      "観": 3084,
      "覺": 3085,
      "见": 3086,
      "观": 3087,
      "视": 3088,
      "觉": 3089,
      "角": 3090,
      "解": 3091,
      "触": 3092,
      "言": 3093,
      "訃": 3094,
      "訊": 3095,
      "討": 3096,
      "訓": 3097,
      "記": 3098,
      "設": 3099,
      "許": 3100,
      "訳": 3101,
      "詠": 3102,
      "試": 3103,
      "詩": 3104,
      "詰": 3105,
      "話": 3106,
      "詳": 3107,
      "詹": 3108,
      "誓": 3109,
      "語": 3110,
      "說": 3111,
      "説": 3112,
      "読": 3113,
      "調": 3114,
      "談": 3115,
      "請": 3116,
      "論": 3117,
      "諸": 3118,
      "謑": 3119,
      "證": 3120,
      "警": 3121,
      "譯": 3122,
      "護": 3123,
      "讃": 3124,
      "變": 3125,
      "计": 3126,
      "讣": 3127,
      "认": 3128,
      "讨": 3129,
      "让": 3130,
      "议": 3131,
      "讯": 3132,
      "记": 3133,
      "讲": 3134,
      "许": 3135,
      "论": 3136,
      "讼": 3137,
      "设": 3138,
      "证": 3139,
      "评": 3140,
      "识": 3141,
      "诉": 3142,
      "译": 3143,
      "试": 3144,
      "诘": 3145,
      "话": 3146,
      "该": 3147,
      "详": 3148,
      "语": 3149,
      "说": 3150,
      "请": 3151,
      "诺": 3152,
      "课": 3153,
      "调": 3154,
      "谈": 3155,
      "谋": 3156,
      "谢": 3157,
      "谷": 3158,
      "豆": 3159,
      "豊": 3160,
      "豐": 3161,
      "豫": 3162,
      "貌": 3163,
      "負": 3164,
      "財": 3165,
      "貢": 3166,
      "販": 3167,
      "貮": 3168,
      "貰": 3169,
      "貴": 3170,
      "貸": 3171,
      "費": 3172,
      "賀": 3173,
      "資": 3174,
      "賈": 3175,
      "賢": 3176,
      "贊": 3177,
      "贞": 3178,
      "负": 3179,
      "贡": 3180,
      "贤": 3181,
      "货": 3182,
      "质": 3183,
      "贫": 3184,
      "购": 3185,
      "贱": 3186,
      "贳": 3187,
      "贷": 3188,
      "贸": 3189,
      "费": 3190,
      "资": 3191,
      "赌": 3192,
      "赖": 3193,
      "赛": 3194,
      "赞": 3195,
      "赤": 3196,
      "赵": 3197,
      "赶": 3198,
      "起": 3199,
      "超": 3200,
      "越": 3201,
      "趋": 3202,
      "趙": 3203,
      "足": 3204,
      "跆": 3205,
      "跋": 3206,
      "跟": 3207,
      "跨": 3208,
      "路": 3209,
      "跳": 3210,
      "踌": 3211,
      "蹟": 3212,
      "躇": 3213,
      "躊": 3214,
      "躍": 3215,
      "身": 3216,
      "車": 3217,
      "軍": 3218,
      "転": 3219,
      "較": 3220,
      "載": 3221,
      "輪": 3222,
      "车": 3223,
      "转": 3224,
      "轮": 3225,
      "轻": 3226,
      "载": 3227,
      "较": 3228,
      "辑": 3229,
      "辛": 3230,
      "辞": 3231,
      "辭": 3232,
      "辱": 3233,
      "農": 3234,
      "込": 3235,
      "达": 3236,
      "迅": 3237,
      "过": 3238,
      "迎": 3239,
      "运": 3240,
      "近": 3241,
      "返": 3242,
      "还": 3243,
      "这": 3244,
      "进": 3245,
      "远": 3246,
      "连": 3247,
      "迫": 3248,
      "述": 3249,
      "迷": 3250,
      "追": 3251,
      "送": 3252,
      "适": 3253,
      "逃": 3254,
      "逆": 3255,
      "选": 3256,
      "透": 3257,
      "途": 3258,
      "通": 3259,
      "速": 3260,
      "造": 3261,
      "逢": 3262,
      "連": 3263,
      "逸": 3264,
      "遇": 3265,
      "遊": 3266,
      "運": 3267,
      "過": 3268,
      "道": 3269,
      "達": 3270,
      "遗": 3271,
      "遝": 3272,
      "遠": 3273,
      "遣": 3274,
      "適": 3275,
      "遪": 3276,
      "遭": 3277,
      "遲": 3278,
      "遷": 3279,
      "遽": 3280,
      "避": 3281,
      "還": 3282,
      "邊": 3283,
      "邑": 3284,
      "那": 3285,
      "邱": 3286,
      "郎": 3287,
      "郑": 3288,
      "郝": 3289,
      "郡": 3290,
      "部": 3291,
      "郷": 3292,
      "都": 3293,
      "鄂": 3294,
      "鄉": 3295,
      "鄭": 3296,
      "酉": 3297,
      "配": 3298,
      "酎": 3299,
      "酒": 3300,
      "酸": 3301,
      "采": 3302,
      "釉": 3303,
      "里": 3304,
      "重": 3305,
      "野": 3306,
      "量": 3307,
      "金": 3308,
      "釣": 3309,
      "鈍": 3310,
      "鈴": 3311,
      "鉄": 3312,
      "鉋": 3313,
      "銀": 3314,
      "銭": 3315,
      "鋍": 3316,
      "鋑": 3317,
      "鋒": 3318,
      "鋓": 3319,
      "鋖": 3320,
      "鋘": 3321,
      "鋜": 3322,
      "鋝": 3323,
      "鋞": 3324,
      "鋟": 3325,
      "録": 3326,
      "鍋": 3327,
      "鎚": 3328,
      "鏡": 3329,
      "鐵": 3330,
      "针": 3331,
      "钓": 3332,
      "钟": 3333,
      "钢": 3334,
      "钦": 3335,
      "钧": 3336,
      "钱": 3337,
      "铁": 3338,
      "铃": 3339,
      "铭": 3340,
      "银": 3341,
      "链": 3342,
      "销": 3343,
      "锈": 3344,
      "锋": 3345,
      "错": 3346,
      "锦": 3347,
      "键": 3348,
      "镜": 3349,
      "長": 3350,
      "长": 3351,
      "門": 3352,
      "開": 3353,
      "間": 3354,
      "関": 3355,
      "閣": 3356,
      "閥": 3357,
      "閩": 3358,
      "關": 3359,
      "门": 3360,
      "问": 3361,
      "间": 3362,
      "闵": 3363,
      "闻": 3364,
      "闽": 3365,
      "阜": 3366,
      "队": 3367,
      "阪": 3368,
      "防": 3369,
      "阳": 3370,
      "阶": 3371,
      "阻": 3372,
      "阿": 3373,
      "陀": 3374,
      "际": 3375,
      "陈": 3376,
      "降": 3377,
      "限": 3378,
      "院": 3379,
      "除": 3380,
      "险": 3381,
      "陰": 3382,
      "陳": 3383,
      "陵": 3384,
      "陶": 3385,
      "陽": 3386,
      "隆": 3387,
      "隊": 3388,
      "階": 3389,
      "際": 3390,
      "障": 3391,
      "难": 3392,
      "雄": 3393,
      "雅": 3394,
      "集": 3395,
      "雙": 3396,
      "雛": 3397,
      "離": 3398,
      "難": 3399,
      "雨": 3400,
      "雪": 3401,
      "雲": 3402,
      "雷": 3403,
      "電": 3404,
      "需": 3405,
      "霊": 3406,
      "霖": 3407,
      "霜": 3408,
      "露": 3409,
      "青": 3410,
      "静": 3411,
      "非": 3412,
      "靠": 3413,
      "面": 3414,
      "革": 3415,
      "靳": 3416,
      "韓": 3417,
      "音": 3418,
      "韻": 3419,
      "頂": 3420,
      "項": 3421,
      "順": 3422,
      "須": 3423,
      "頑": 3424,
      "領": 3425,
      "頭": 3426,
      "題": 3427,
      "顗": 3428,
      "顯": 3429,
      "页": 3430,
      "顶": 3431,
      "顷": 3432,
      "须": 3433,
      "顾": 3434,
      "预": 3435,
      "颐": 3436,
      "颖": 3437,
      "题": 3438,
      "颜": 3439,
      "额": 3440,
      "風": 3441,
      "风": 3442,
      "飛": 3443,
      "飞": 3444,
      "食": 3445,
      "飯": 3446,
      "飲": 3447,
      "飼": 3448,
      "館": 3449,
      "饮": 3450,
      "饲": 3451,
      "馆": 3452,
      "首": 3453,
      "香": 3454,
      "馬": 3455,
      "駄": 3456,
      "駅": 3457,
      "験": 3458,
      "騙": 3459,
      "騜": 3460,
      "驗": 3461,
      "马": 3462,
      "验": 3463,
      "骨": 3464,
      "髄": 3465,
      "體": 3466,
      "高": 3467,
      "鬼": 3468,
      "魔": 3469,
      "鮨": 3470,
      "鮮": 3471,
      "鯨": 3472,
      "鰀": 3473,
      "鰃": 3474,
      "鰄": 3475,
      "鰈": 3476,
      "鰊": 3477,
      "鰎": 3478,
      "鱲": 3479,
      "鱼": 3480,
      "鲁": 3481,
      "鲞": 3482,
      "鳩": 3483,
      "鳳": 3484,
      "鴻": 3485,
      "鵜": 3486,
      "鷹": 3487,
      "鸡": 3488,
      "鸭": 3489,
      "鸯": 3490,
      "鸳": 3491,
      "鹅": 3492,
      "鹈": 3493,
      "鹤": 3494,
      "鹿": 3495,
      "麗": 3496,
      "麩": 3497,
      "麺": 3498,
      "黃": 3499,
      "黄": 3500,
      "黎": 3501,
      "黒": 3502,
      "黚": 3503,
      "點": 3504,
      "黡": 3505,
      "黨": 3506,
      "黮": 3507,
      "黵": 3508,
      "黷": 3509,
      "鼻": 3510,
      "齋": 3511,
      "齡": 3512,
      "龍": 3513,
      "龙": 3514,
      "검": 3515,
      "겜": 3516,
      "경": 3517,
      "계": 3518,
      "고": 3519,
      "곡": 3520,
      "구": 3521,
      "국": 3522,
      "군": 3523,
      "권": 3524,
      "글": 3525,
      "김": 3526,
      "뀌": 3527,
      "나": 3528,
      "널": 3529,
      "녀": 3530,
      "년": 3531,
      "노": 3532,
      "누": 3533,
      "는": 3534,
      "니": 3535,
      "닌": 3536,
      "님": 3537,
      "다": 3538,
      "단": 3539,
      "당": 3540,
      "대": 3541,
      "도": 3542,
      "돌": 3543,
      "동": 3544,
      "드": 3545,
      "디": 3546,
      "딘": 3547,
      "딩": 3548,
      "라": 3549,
      "레": 3550,
      "려": 3551,
      "령": 3552,
      "로": 3553,
      "루": 3554,
      "류": 3555,
      "르": 3556,
      "린": 3557,
      "마": 3558,
      "막": 3559,
      "맨": 3560,
      "면": 3561,
      "목": 3562,
      "무": 3563,
      "문": 3564,
      "미": 3565,
      "바": 3566,
      "박": 3567,
      "반": 3568,
      "백": 3569,
      "뱅": 3570,
      "번": 3571,
      "벌": 3572,
      "법": 3573,
      "베": 3574,
      "변": 3575,
      "별": 3576,
      "보": 3577,
      "블": 3578,
      "비": 3579,
      "빅": 3580,
      "빌": 3581,
      "빛": 3582,
      "사": 3583,
      "산": 3584,
      "서": 3585,
      "선": 3586,
      "성": 3587,
      "세": 3588,
      "셀": 3589,
      "셔": 3590,
      "셜": 3591,
      "소": 3592,
      "수": 3593,
      "스": 3594,
      "습": 3595,
      "승": 3596,
      "시": 3597,
      "신": 3598,
      "싱": 3599,
      "아": 3600,
      "알": 3601,
      "압": 3602,
      "야": 3603,
      "양": 3604,
      "어": 3605,
      "었": 3606,
      "에": 3607,
      "엘": 3608,
      "엠": 3609,
      "영": 3610,
      "오": 3611,
      "왕": 3612,
      "요": 3613,
      "울": 3614,
      "웅": 3615,
      "워": 3616,
      "월": 3617,
      "웨": 3618,
      "위": 3619,
      "유": 3620,
      "율": 3621,
      "으": 3622,
      "을": 3623,
      "읍": 3624,
      "이": 3625,
      "인": 3626,
      "일": 3627,
      "자": 3628,
      "작": 3629,
      "적": 3630,
      "전": 3631,
      "정": 3632,
      "제": 3633,
      "조": 3634,
      "존": 3635,
      "종": 3636,
      "주": 3637,
      "지": 3638,
      "짝": 3639,
      "창": 3640,
      "천": 3641,
      "체": 3642,
      "추": 3643,
      "충": 3644,
      "층": 3645,
      "치": 3646,
      "클": 3647,
      "키": 3648,
      "킨": 3649,
      "태": 3650,
      "터": 3651,
      "턴": 3652,
      "톨": 3653,
      "퇴": 3654,
      "트": 3655,
      "티": 3656,
      "퍼": 3657,
      "폐": 3658,
      "피": 3659,
      "한": 3660,
      "향": 3661,
      "호": 3662,
      "환": 3663,
      "회": 3664,
      "훈": 3665,
      "": 3666,
      "": 3667,
      "": 3668,
      "": 3669,
      "": 3670,
      "": 3671,
      "": 3672,
      "": 3673,
      "": 3674,
      "": 3675,
      "": 3676,
      "": 3677,
      "": 3678,
      "": 3679,
      "": 3680,
      "": 3681,
      "": 3682,
      "": 3683,
      "": 3684,
      "": 3685,
      "": 3686,
      "": 3687,
      "": 3688,
      "": 3689,
      "": 3690,
      "": 3691,
      "": 3692,
      "": 3693,
      "金": 3694,
      "ﬁ": 3695,
      "ﬂ": 3696,
      "ﷲ": 3697,
      "︰": 3698,
      "ﺍ": 3699,
      "ﺏ": 3700,
      "ﺤ": 3701,
      "ﺩ": 3702,
      "ﻁ": 3703,
      "ﻙ": 3704,
      "ﻫ": 3705,
      "﻿": 3706,
      "！": 3707,
      "＄": 3708,
      "（": 3709,
      "）": 3710,
      "＊": 3711,
      "，": 3712,
      "－": 3713,
      "．": 3714,
      "１": 3715,
      "２": 3716,
      "７": 3717,
      "９": 3718,
      "：": 3719,
      "；": 3720,
      "？": 3721,
      "Ｉ": 3722,
      "Ｐ": 3723,
      "Ｓ": 3724,
      "Ｖ": 3725,
      "［": 3726,
      "］": 3727,
      "ｂ": 3728,
      "ｄ": 3729,
      "ｅ": 3730,
      "ｈ": 3731,
      "ｌ": 3732,
      "ｏ": 3733,
      "ｓ": 3734,
      "ｔ": 3735,
      "ｕ": 3736,
      "､": 3737,
      "･": 3738,
      "ｫ": 3739,
      "ｲ": 3740,
      "ｻ": 3741,
      "ｿ": 3742,
      "ﾜ": 3743,
      "ﾟ": 3744,
      "￠": 3745,
      "￡": 3746,
      "￥": 3747,
      "￼": 3748,
      "�": 3749,
      "𐌰": 3750,
      "𐌴": 3751,
      "𐌸": 3752,
      "𐌼": 3753,
      "𐌽": 3754,
      "𐍃": 3755,
      "𐍉": 3756,
      "𠐄": 3757,
      "𢥲": 3758,
      "𧵮": 3759,
      "𲠄": 3760,
      "𲠤": 3761,
      "򮬩": 3762,
      "򮮥": 3763,
      "򲤥": 3764,
      "򲵮": 3765,
      "򴩧": 3766,
      "##u": 3767,
      "##n": 3768,
      "##k": 3769,
      "##h": 3770,
      "##r": 3771,
      "##a": 3772,
      "##d": 3773,
      "##i": 3774,
      "##o": 3775,
      "##w": 3776,
      "##e": 3777,
      "##c": 3778,
      "##x": 3779,
      "##s": 3780,
      "##t": 3781,
      "##q": 3782,
      "##g": 3783,
      "##f": 3784,
      "##z": 3785,
      "##R": 3786,
      "##I": 3787,
      "##G": 3788,
      "##N": 3789,
      "##A": 3790,
      "##L": 3791,
      "##E": 3792,
      "##S": 3793,
      "##b": 3794,
      "##m": 3795,
      "##V": 3796,
      "##B": 3797,
      "##W": 3798,
      "##Y": 3799,
      "##é": 3800,
      "##l": 3801,
      "##p": 3802,
      "##j": 3803,
      "##è": 3804,
      "##v": 3805,
      "##ü": 3806,
      "##а": 3807,
      "##у": 3808,
      "##ч": 3809,
      "##и": 3810,
      "##т": 3811,
      "##ь": 3812,
      "##O": 3813,
      "##ä": 3814,
      "##ö": 3815,
      "##ß": 3816,
      "##T": 3817,
      "##y": 3818,
      "##9": 3819,
      "##1": 3820,
      "##H": 3821,
      "##K": 3822,
      "##P": 3823,
      "##吸": 3824,
      "##動": 3825,
      "##作": 3826,
      "##ú": 3827,
      "##3": 3828,
      "##ą": 3829,
      "##ç": 3830,
      "##4": 3831,
      "##0": 3832,
      "##C": 3833,
      "##5": 3834,
      "##β": 3835,
      "##ŏ": 3836,
      "##2": 3837,
      "##F": 3838,
      "##Ä": 3839,
      "##U": 3840,
      "##6": 3841,
      "##ţ": 3842,
      "##ц": 3843,
      "##і": 3844,
      "##о": 3845,
      "##н": 3846,
      "##л": 3847,
      "##D": 3848,
      "##M": 3849,
      "##´": 3850,
      "##ū": 3851,
      "##ż": 3852,
      "##Ê": 3853,
      "##J": 3854,
      "##­": 3855,
      "##ě": 3856,
      "##�": 3857,
      "##з": 3858,
      "##є": 3859,
      "##е": 3860,
      "##с": 3861,
      "##č": 3862,
      "##å": 3863,
      "##á": 3864,
      "##ó": 3865,
      "##í": 3866,
      "##ś": 3867,
      "##ā": 3868,
      "##п": 3869,
      "##ы": 3870,
      "##й": 3871,
      "##ř": 3872,
      "##к": 3873,
      "##х": 3874,
      "##Ã": 3875,
      "##¤": 3876,
      "##8": 3877,
      "##ý": 3878,
      "##®": 3879,
      "##р": 3880,
      "##б": 3881,
      "##я": 3882,
      "##Z": 3883,
      "##ì": 3884,
      "##ρ": 3885,
      "##ο": 3886,
      "##σ": 3887,
      "##ω": 3888,
      "##π": 3889,
      "##ι": 3890,
      "##κ": 3891,
      "##ύ": 3892,
      "##ς": 3893,
      "##ľ": 3894,
      "##ę": 3895,
      "##½": 3896,
      "##X": 3897,
      "##ø": 3898,
      "##ñ": 3899,
      "##Û": 3900,
      "##д": 3901,
      "##ı": 3902,
      "##ğ": 3903,
      "##¹": 3904,
      "##в": 3905,
      "##ť": 3906,
      "##ž": 3907,
      "##€": 3908,
      "##œ": 3909,
      "##â": 3910,
      "##š": 3911,
      "##7": 3912,
      "##ã": 3913,
      "##λ": 3914,
      "##ε": 3915,
      "##²": 3916,
      "##ا": 3917,
      "##ō": 3918,
      "##": 3919,
      "##¼": 3920,
      "##Р": 3921,
      "##Е": 3922,
      "##С": 3923,
      "##ї": 3924,
      "##г": 3925,
      "##Q": 3926,
      "##à": 3927,
      "##ï": 3928,
      "##º": 3929,
      "##ў": 3930,
      "##м": 3931,
      "##̈": 3932,
      "##™": 3933,
      "##ń": 3934,
      "##õ": 3935,
      "##ů": 3936,
      "##α": 3937,
      "##τ": 3938,
      "##ώ": 3939,
      "##ν": 3940,
      "##ê": 3941,
      "##": 3942,
      "##ć": 3943,
      "##ş": 3944,
      "##Н": 3945,
      "##Г": 3946,
      "##©": 3947,
      "##î": 3948,
      "##đ": 3949,
      "##ĺ": 3950,
      "##ň": 3951,
      "##ŕ": 3952,
      "##ë": 3953,
      "##Á": 3954,
      "##О": 3955,
      "##Т": 3956,
      "##−": 3957,
      "##³": 3958,
      "##ē": 3959,
      "##ф": 3960,
      "##": 3961,
      "##æ": 3962,
      "##ă": 3963,
      "##ј": 3964,
      "##ô": 3965,
      "##ن": 3966,
      "##ه": 3967,
      "##υ": 3968,
      "##ί": 3969,
      "##島": 3970,
      "##列": 3971,
      "##¨": 3972,
      "##ə": 3973,
      "##ņ": 3974,
      "##": 3975,
      "##Ü": 3976,
      "##ш": 3977,
      "##デ": 3978,
      "##ィ": 3979,
      "##フ": 3980,
      "##ァ": 3981,
      "##イ": 3982,
      "##ア": 3983,
      "##ン": 3984,
      "##ト": 3985,
      "##ю": 3986,
      "##щ": 3987,
      "##χ": 3988,
      "##ή": 3989,
      "##和": 3990,
      "##食": 3991,
      "##Ö": 3992,
      "##û": 3993,
      "##ж": 3994,
      "##丨": 3995,
      "##Я": 3996,
      "##Ý": 3997,
      "##ò": 3998,
      "##ð": 3999,
      "##ћ": 4000,
      "##名": 4001,
      "##Ђ": 4002,
      "##њ": 4003,
      "##ќ": 4004,
      "##э": 4005,
      "##ő": 4006,
      "##文": 4007,
      "##ł": 4008,
      "##°": 4009,
      "##ิ": 4010,
      "##ง": 4011,
      "##ห": 4012,
      "##า": 4013,
      "##ค": 4014,
      "##ม": 4015,
      "##ù": 4016,
      "##þ": 4017,
      "##П": 4018,
      "##物": 4019,
      "##价": 4020,
      "##ぁ": 4021,
      "##М": 4022,
      "##湯": 4023,
      "##ل": 4024,
      "##ت": 4025,
      "##ص": 4026,
      "##ي": 4027,
      "##ف": 4028,
      "##ī": 4029,
      "##ی": 4030,
      "##و": 4031,
      "##ά": 4032,
      "##џ": 4033,
      "##ﬁ": 4034,
      "##θ": 4035,
      "##ช": 4036,
      "##ก": 4037,
      "##ใ": 4038,
      "##น": 4039,
      "##ว": 4040,
      "##ź": 4041,
      "##±": 4042,
      "##س": 4043,
      "##م": 4044,
      "##Â": 4045,
      "##Ó": 4046,
      "##Ì": 4047,
      "##Ï": 4048,
      "##ė": 4049,
      "##": 4050,
      "##โ": 4051,
      "##ส": 4052,
      "##ร": 4053,
      "##ฟ": 4054,
      "##ุ": 4055,
      "##ต": 4056,
      "##บ": 4057,
      "##อ": 4058,
      "##ล": 4059,
      "##แ": 4060,
      "##เ": 4061,
      "##์": 4062,
      "##ย": 4063,
      "##ู": 4064,
      "##ไ": 4065,
      "##็": 4066,
      "##ด": 4067,
      "##É": 4068,
      "##庆": 4069,
      "##ع": 4070,
      "##ق": 4071,
      "##ب": 4072,
      "##岭": 4073,
      "##山": 4074,
      "##ǐ": 4075,
      "##×": 4076,
      "##َ": 4077,
      "##ى": 4078,
      "##뀌": 4079,
      "##었": 4080,
      "##습": 4081,
      "##니": 4082,
      "##다": 4083,
      "##Ò": 4084,
      "##฿": 4085,
      "##È": 4086,
      "##γ": 4087,
      "##μ": 4088,
      "##ะ": 4089,
      "##ั": 4090,
      "##ű": 4091,
      "##І": 4092,
      "##¬": 4093,
      "##Ў": 4094,
      "##Ё": 4095,
      "##Λ": 4096,
      "##Η": 4097,
      "##Ν": 4098,
      "##Ι": 4099,
      "##Κ": 4100,
      "##Ο": 4101,
      "##Ÿ": 4102,
      "##ং": 4103,
      "##ক": 4104,
      "##র": 4105,
      "##δ": 4106,
      "##η": 4107,
      "##้": 4108,
      "##ญ": 4109,
      "##่": 4110,
      "##ה": 4111,
      "##ų": 4112,
      "##ё": 4113,
      "##Ñ": 4114,
      "##": 4115,
      "##": 4116,
      "##ÿ": 4117,
      "##¸": 4118,
      "##": 4119,
      "##": 4120,
      "##援": 4121,
      "##竜": 4122,
      "##卦": 4123,
      "##ξ": 4124,
      "##ַ": 4125,
      "##ש": 4126,
      "##ְ": 4127,
      "##ׁ": 4128,
      "##כ": 4129,
      "##ֲ": 4130,
      "##ּ": 4131,
      "##נ": 4132,
      "##ָ": 4133,
      "##ז": 4134,
      "##ả": 4135,
      "##ό": 4136,
      "##ъ": 4137,
      "##汇": 4138,
      "##区": 4139,
      "##Ø": 4140,
      "##Ş": 4141,
      "##‭": 4142,
      "##ל": 4143,
      "##王": 4144,
      "##卓": 4145,
      "##钧": 4146,
      "##迎": 4147,
      "##道": 4148,
      "##Ѓ": 4149,
      "##Í": 4150,
      "##ش": 4151,
      "##ļ": 4152,
      "##ر": 4153,
      "##ِ": 4154,
      "##→": 4155,
      "##ו": 4156,
      "##י": 4157,
      "##א": 4158,
      "##ן": 4159,
      "##ֿ": 4160,
      "##ג": 4161,
      "##ד": 4162,
      "##ע": 4163,
      "##ғ": 4164,
      "##Ç": 4165,
      "##Č": 4166,
      "##負": 4167,
      "##ท": 4168,
      "##ี": 4169,
      "##松": 4170,
      "##第": 4171,
      "##一": 4172,
      "##小": 4173,
      "##學": 4174,
      "##צ": 4175,
      "##ט": 4176,
      "##أ": 4177,
      "##ذ": 4178,
      "##ّ": 4179,
      "##Њ": 4180,
      "##Ћ": 4181,
      "##ủ": 4182,
      "##ገ": 4183,
      "##ስ": 4184,
      "##ት": 4185,
      "##録": 4186,
      "##商": 4187,
      "##標": 4188,
      "##中": 4189,
      "##正": 4190,
      "##分": 4191,
      "##局": 4192,
      "##ģ": 4193,
      "##庁": 4194,
      "##ც": 4195,
      "##ი": 4196,
      "##放": 4197,
      "##家": 4198,
      "##禽": 4199,
      "##饲": 4200,
      "##养": 4201,
      "##增": 4202,
      "##加": 4203,
      "##了": 4204,
      "##流": 4205,
      "##感": 4206,
      "##等": 4207,
      "##传": 4208,
      "##染": 4209,
      "##病": 4210,
      "##的": 4211,
      "##播": 4212,
      "##В": 4213,
      "##Й": 4214,
      "##Ш": 4215,
      "##器": 4216,
      "##持": 4217,
      "##歩": 4218,
      "##˙": 4219,
      "##ﬂ": 4220,
      "##ď": 4221,
      "##ζ": 4222,
      "##神": 4223,
      "##皇": 4224,
      "##帝": 4225,
      "##¢": 4226,
      "##讼": 4227,
      "##澄": 4228,
      "##晨": 4229,
      "##套": 4230,
      "##图": 4231,
      "##÷": 4232,
      "##Ų": 4233,
      "##µ": 4234,
      "##ة": 4235,
      "##旋": 4236,
      "##階": 4237,
      "##段": 4238,
      "##の": 4239,
      "##心": 4240,
      "##を": 4241,
      "##落": 4242,
      "##ち": 4243,
      "##て": 4244,
      "##ゆ": 4245,
      "##く": 4246,
      "##体": 4247,
      "##が": 4248,
      "##下": 4249,
      "##し": 4250,
      "##壊": 4251,
      "##れ": 4252,
      "##≤": 4253,
      "##Ă": 4254,
      "##东": 4255,
      "##ề": 4256,
      "##乗": 4257,
      "##切": 4258,
      "##过": 4259,
      "##这": 4260,
      "##位": 4261,
      "##医": 4262,
      "##生": 4263,
      "##比": 4264,
      "##较": 4265,
      "##有": 4266,
      "##意": 4267,
      "##思": 4268,
      "##ُ": 4269,
      "##φ": 4270,
      "##ञ": 4271,
      "##्": 4272,
      "##च": 4273,
      "##त": 4274,
      "##न": 4275,
      "##र": 4276,
      "##Å": 4277,
      "##¾": 4278,
      "##徒": 4279,
      "##然": 4280,
      "##ừ": 4281,
      "##خ": 4282,
      "##​": 4283,
      "##ḥ": 4284,
      "##─": 4285,
      "##┐": 4286,
      "##ª": 4287,
      "##乙": 4288,
      "##宰": 4289,
      "##府": 4290,
      "##市": 4291,
      "##ấ": 4292,
      "##ณ": 4293,
      "##จ": 4294,
      "##屿": 4295,
      "##ĕ": 4296,
      "##于": 4297,
      "##免": 4298,
      "##疫": 4299,
      "##球": 4300,
      "##蛋": 4301,
      "##白": 4302,
      "##向": 4303,
      "##け": 4304,
      "##開": 4305,
      "##設": 4306,
      "##た": 4307,
      "##特": 4308,
      "##ペ": 4309,
      "##ー": 4310,
      "##ジ": 4311,
      "##で": 4312,
      "##す": 4313,
      "##ḍ": 4314,
      "##Š": 4315,
      "##网": 4316,
      "##站": 4317,
      "##克": 4318,
      "##苏": 4319,
      "##À": 4320,
      "##ẽ": 4321,
      "##海": 4322,
      "##ǎ": 4323,
      "##ֹ": 4324,
      "##Ë": 4325,
      "##𲠄": 4326,
      "##ك": 4327,
      "##¦": 4328,
      "##ỹ": 4329,
      "##Љ": 4330,
      "##離": 4331,
      "##Ž": 4332,
      "##今": 4333,
      "##Τ": 4334,
      "##ұ": 4335,
      "##字": 4336,
      "##ር": 4337,
      "##ካ": 4338,
      "##ɛ": 4339,
      "##温": 4340,
      "##ђ": 4341,
      "##キ": 4342,
      "##ラ": 4343,
      "##ج": 4344,
      "##ǔ": 4345,
      "##Ě": 4346,
      "##合": 4347,
      "##ם": 4348,
      "##Õ": 4349,
      "##Þ": 4350,
      "##Ð": 4351,
      "##£": 4352,
      "##ح": 4353,
      "##د": 4354,
      "##˝": 4355,
      "##釉": 4356,
      "##彩": 4357,
      "##": 4358,
      "##章": 4359,
      "##К": 4360,
      "##А": 4361,
      "##而": 4362,
      "##言": 4363,
      "##年": 4364,
      "##Ќ": 4365,
      "##Ć": 4366,
      "##ר": 4367,
      "##ִ": 4368,
      "##ṭ": 4369,
      "##阪": 4370,
      "##": 4371,
      "##ψ": 4372,
      "##": 4373,
      "##鲁": 4374,
      "##년": 4375,
      "##派": 4376,
      "##甜": 4377,
      "##振": 4378,
      "##込": 4379,
      "##提": 4380,
      "##達": 4381,
      "##摩": 4382,
      "##́": 4383,
      "##ƒ": 4384,
      "##地": 4385,
      "##咆": 4386,
      "##哮": 4387,
      "##北": 4388,
      "##έ": 4389,
      "##伯": 4390,
      "##浜": 4391,
      "##ャ": 4392,
      "##ッ": 4393,
      "##ク": 4394,
      "##モ": 4395,
      "##ル": 4396,
      "##っ": 4397,
      "##ˈ": 4398,
      "##ɑ": 4399,
      "##ː": 4400,
      "##便": 4401,
      "##两": 4402,
      "##气": 4403,
      "##候": 4404,
      "##产": 4405,
      "##者": 4406,
      "##不": 4407,
      "##同": 4408,
      "##И": 4409,
      "##Д": 4410,
      "##˚": 4411,
      "##Б": 4412,
      "##Щ": 4413,
      "##鰊": 4414,
      "##赤": 4415,
      "##嶺": 4416,
      "##ố": 4417,
      "##租": 4418,
      "##车": 4419,
      "##ʼ": 4420,
      "##ĝ": 4421,
      "##出": 4422,
      "##来": 4423,
      "##Æ": 4424,
      "##ק": 4425,
      "##ת": 4426,
      "##ይ": 4427,
      "##ሕ": 4428,
      "##ѕ": 4429,
      "##め": 4430,
      "##い": 4431,
      "##泥": 4432,
      "##Ś": 4433,
      "##¥": 4434,
      "##吗": 4435,
      "##手": 4436,
      "##许": 4437,
      "##马": 4438,
      "##路": 4439,
      "##嘟": 4440,
      "##情": 4441,
      "##人": 4442,
      "##色": 4443,
      "##網": 4444,
      "##غ": 4445,
      "##干": 4446,
      "##ֳ": 4447,
      "##₪": 4448,
      "##ി": 4449,
      "##ന": 4450,
      "##ക": 4451,
      "##്": 4452,
      "##ോ": 4453,
      "##യ": 4454,
      "##粮": 4455,
      "##安": 4456,
      "##全": 4457,
      "##前": 4458,
      "##景": 4459,
      "##仍": 4460,
      "##是": 4461,
      "##光": 4462,
      "##明": 4463,
      "##ư": 4464,
      "##ờ": 4465,
      "##ŷ": 4466,
      "##ֶ": 4467,
      "##营": 4468,
      "##素": 4469,
      "##寸": 4470,
      "##入": 4471,
      "##מ": 4472,
      "##ط": 4473,
      "##ْ": 4474,
      "##ؤ": 4475,
      "##お": 4476,
      "##ん": 4477,
      "##必": 4478,
      "##व": 4479,
      "##स": 4480,
      "##ि": 4481,
      "##क": 4482,
      "##笠": 4483,
      "##原": 4484,
      "##諸": 4485,
      "##留": 4486,
      "##米": 4487,
      "##鋍": 4488,
      "##ถ": 4489,
      "##リ": 4490,
      "##ە": 4491,
      "##ۇ": 4492,
      "##林": 4493,
      "##水": 4494,
      "##甲": 4495,
      "##天": 4496,
      "##Є": 4497,
      "##ำ": 4498,
      "##ผ": 4499,
      "##ื": 4500,
      "##ŭ": 4501,
      "##パ": 4502,
      "##艳": 4503,
      "##舞": 4504,
      "##系": 4505,
      "##量": 4506,
      "##带": 4507,
      "##四": 4508,
      "##之": 4509,
      "##三": 4510,
      "##总": 4511,
      "##长": 4512,
      "##坊": 4513,
      "##危": 4514,
      "##惧": 4515,
      "##": 4516,
      "##握": 4517,
      "##り": 4518,
      "##ث": 4519,
      "##ϋ": 4520,
      "##Ц": 4521,
      "##ũ": 4522,
      "##Ú": 4523,
      "##ヨ": 4524,
      "##タ": 4525,
      "##自": 4526,
      "##車": 4527,
      "##株": 4528,
      "##式": 4529,
      "##会": 4530,
      "##社": 4531,
      "##ข": 4532,
      "##管": 4533,
      "##得": 4534,
      "##统": 4535,
      "##Ń": 4536,
      "##İ": 4537,
      "##务": 4538,
      "##看": 4539,
      "##内": 4540,
      "##部": 4541,
      "##装": 4542,
      "##潢": 4543,
      "##很": 4544,
      "##用": 4545,
      "##须": 4546,
      "##通": 4547,
      "##引": 4548,
      "##更": 4549,
      "##高": 4550,
      "##效": 4551,
      "##技": 4552,
      "##术": 4553,
      "##以": 4554,
      "##抵": 4555,
      "##消": 4556,
      "##影": 4557,
      "##响": 4558,
      "##胞": 4559,
      "##ɫ": 4560,
      "##子": 4561,
      "##鷹": 4562,
      "##爪": 4563,
      "##拳": 4564,
      "##遝": 4565,
      "##ɐ": 4566,
      "##民": 4567,
      "##委": 4568,
      "##员": 4569,
      "##ә": 4570,
      "##赖": 4571,
      "##喇": 4572,
      "##嘛": 4573,
      "##蓮": 4574,
      "##止": 4575,
      "##ệ": 4576,
      "##科": 4577,
      "##学": 4578,
      "##能": 4579,
      "##够": 4580,
      "##进": 4581,
      "##行": 4582,
      "##或": 4583,
      "##改": 4584,
      "##良": 4585,
      "##育": 4586,
      "##无": 4587,
      "##法": 4588,
      "##达": 4589,
      "##到": 4590,
      "##性": 4591,
      "##多": 4592,
      "##方": 4593,
      "##在": 4594,
      "##追": 4595,
      "##求": 4596,
      "##样": 4597,
      "##化": 4598,
      "##饮": 4599,
      "##Ł": 4600,
      "##淹": 4601,
      "##ド": 4602,
      "##Ė": 4603,
      "##设": 4604,
      "##ک": 4605,
      "##Ω": 4606,
      "##Ґ": 4607,
      "##桂": 4608,
      "##胡": 4609,
      "##族": 4610,
      "##ʃ": 4611,
      "##抜": 4612,
      "##杏": 4613,
      "##พ": 4614,
      "##限": 4615,
      "##公": 4616,
      "##司": 4617,
      "##鈍": 4618,
      "##ǒ": 4619,
      "##羅": 4620,
      "##オ": 4621,
      "##交": 4622,
      "##換": 4623,
      "##も": 4624,
      "##レ": 4625,
      "##き": 4626,
      "##寿": 4627,
      "##介": 4628,
      "##石": 4629,
      "##Э": 4630,
      "##゜": 4631,
      "##記": 4632,
      "##に": 4633,
      "##세": 4634,
      "##돌": 4635,
      "##国": 4636,
      "##大": 4637,
      "##酒": 4638,
      "##店": 4639,
      "##ạ": 4640,
      "##ơ": 4641,
      "##ٍ": 4642,
      "##Ô": 4643,
      "##¯": 4644,
      "##ʌ": 4645,
      "##ɔ": 4646,
      "##品": 4647,
      "##质": 4648,
      "##种": 4649,
      "##口": 4650,
      "##将": 4651,
      "##九": 4652,
      "##十": 4653,
      "##亿": 4654,
      "##﻿": 4655,
      "##重": 4656,
      "##喜": 4657,
      "##慶": 4658,
      "##닌": 4659,
      "##천": 4660,
      "##鉋": 4661,
      "##紋": 4662,
      "##试": 4663,
      "##相": 4664,
      "##♫": 4665,
      "##珠": 4666,
      "##奶": 4667,
      "##茶": 4668,
      "##˜": 4669,
      "##۷": 4670,
      "##鋘": 4671,
      "##Л": 4672,
      "##З": 4673,
      "##ŋ": 4674,
      "##": 4675,
      "##閣": 4676,
      "##寺": 4677,
      "##財": 4678,
      "##閥": 4679,
      "##일": 4680,
      "##성": 4681,
      "##": 4682,
      "##검": 4683,
      "##語": 4684,
      "##Џ": 4685,
      "##ツ": 4686,
      "##ハ": 4687,
      "##Ű": 4688,
      "##┬": 4689,
      "##木": 4690,
      "##簡": 4691,
      "##也": 4692,
      "##葉": 4693,
      "##ɨ": 4694,
      "##": 4695,
      "##ˇ": 4696,
      "##य": 4697,
      "##ा": 4698,
      "##Ж": 4699,
      "##म": 4700,
      "##े": 4701,
      "##风": 4702,
      "##土": 4703,
      "##グ": 4704,
      "##解": 4705,
      "##难": 4706,
      "##题": 4707,
      "##奈": 4708,
      "##野": 4709,
      "##ひ": 4710,
      "##と": 4711,
      "##除": 4712,
      "##依": 4713,
      "##鋜": 4714,
      "##騙": 4715,
      "##根": 4716,
      "##ป": 4717,
      "##ክ": 4718,
      "##ቶ": 4719,
      "##በ": 4720,
      "##Ｖ": 4721,
      "##Ｉ": 4722,
      "##Ｐ": 4723,
      "##定": 4724,
      "##画": 4725,
      "##ダ": 4726,
      "##ウ": 4727,
      "##ロ": 4728,
      "##る": 4729,
      "##よ": 4730,
      "##う": 4731,
      "##な": 4732,
      "##ま": 4733,
      "##Ď": 4734,
      "##亨": 4735,
      "##ض": 4736,
      "##ṉ": 4737,
      "##回": 4738,
      "##せ": 4739,
      "##ế": 4740,
      "##度": 4741,
      "##は": 4742,
      "##み": 4743,
      "##サ": 4744,
      "##ز": 4745,
      "##差": 4746,
      "##异": 4747,
      "##巨": 4748,
      "##ɹ": 4749,
      "##ῆ": 4750,
      "##联": 4751,
      "##ב": 4752,
      "##沢": 4753,
      "##주": 4754,
      "##‎": 4755,
      "##本": 4756,
      "##母": 4757,
      "##乱": 4758,
      "##伦": 4759,
      "##费": 4760,
      "##电": 4761,
      "##载": 4762,
      "##仮": 4763,
      "##ब": 4764,
      "##Î": 4765,
      "##际": 4766,
      "##上": 4767,
      "##住": 4768,
      "##む": 4769,
      "##場": 4770,
      "##所": 4771,
      "##コ": 4772,
      "##勧": 4773,
      "##受": 4774,
      "##Ї": 4775,
      "##ґ": 4776,
      "##快": 4777,
      "##速": 4778,
      "##成": 4779,
      "##熟": 4780,
      "##稻": 4781,
      "##払": 4782,
      "##際": 4783,
      "##波": 4784,
      "##丽": 4785,
      "##士": 4786,
      "##ɪ": 4787,
      "##ʒ": 4788,
      "##ɚ": 4789,
      "##南": 4790,
      "##Œ": 4791,
      "##腹": 4792,
      "##ħ": 4793,
      "##ș": 4794,
      "##宿": 4795,
      "##御": 4796,
      "##苑": 4797,
      "##掛": 4798,
      "##箱": 4799,
      "##税": 4800,
      "##į": 4801,
      "##亚": 4802,
      "##欧": 4803,
      "##各": 4804,
      "##处": 4805,
      "##春": 4806,
      "##崩": 4807,
      "##": 4808,
      "##新": 4809,
      "##些": 4810,
      "##功": 4811,
      "##革": 4812,
      "##ἰ": 4813,
      "##阳": 4814,
      "##治": 4815,
      "##县": 4816,
      "##☆": 4817,
      "##ң": 4818,
      "##⁄": 4819,
      "##Ε": 4820,
      "##如": 4821,
      "##此": 4822,
      "##央": 4823,
      "##州": 4824,
      "##半": 4825,
      "##元": 4826,
      "##策": 4827,
      "##应": 4828,
      "##该": 4829,
      "##倍": 4830,
      "##努": 4831,
      "##力": 4832,
      "##̃": 4833,
      "##取": 4834,
      "##Ы": 4835,
      "##Ч": 4836,
      "##眼": 4837,
      "##鏡": 4838,
      "##傷": 4839,
      "##気": 4840,
      "##街": 4841,
      "##ỉ": 4842,
      "##応": 4843,
      "##蒋": 4844,
      "##仁": 4845,
      "##屋": 4846,
      "##ザ": 4847,
      "##ズ": 4848,
      "##義": 4849,
      "##直": 4850,
      "##注": 4851,
      "##ず": 4852,
      "##遠": 4853,
      "##見": 4854,
      "##慣": 4855,
      "##라": 4856,
      "##디": 4857,
      "##미": 4858,
      "##르": 4859,
      "##Ř": 4860,
      "##ম": 4861,
      "##外": 4862,
      "##语": 4863,
      "##父": 4864,
      "##ү": 4865,
      "##屄": 4866,
      "##ʀ": 4867,
      "##読": 4868,
      "##ɾ": 4869,
      "##黷": 4870,
      "##降": 4871,
      "##可": 4872,
      "##ʿ": 4873,
      "##武": 4874,
      "##埔": 4875,
      "##ृ": 4876,
      "##月": 4877,
      "##日": 4878,
      "##ҙ": 4879,
      "##ס": 4880,
      "##♥": 4881,
      "##♀": 4882,
      "##ḿ": 4883,
      "##۹": 4884,
      "##۰": 4885,
      "##۵": 4886,
      "##ѓ": 4887,
      "##長": 4888,
      "##包": 4889,
      "##圍": 4890,
      "##ຂ": 4891,
      "##ົ": 4892,
      "##້": 4893,
      "##າ": 4894,
      "##ໜ": 4895,
      "##ຽ": 4896,
      "##ວ": 4897,
      "##Δ": 4898,
      "##딩": 4899,
      "##드": 4900,
      "##레": 4901,
      "##스": 4902,
      "##ț": 4903,
      "##理": 4904,
      "##電": 4905,
      "##か": 4906,
      "##朔": 4907,
      "##台": 4908,
      "##热": 4909,
      "##耐": 4910,
      "##Х": 4911,
      "##藤": 4912,
      "##吉": 4913,
      "##郎": 4914,
      "##ユ": 4915,
      "##ल": 4916,
      "##ो": 4917,
      "##适": 4918,
      "##耕": 4919,
      "##数": 4920,
      "##先": 4921,
      "##估": 4922,
      "##计": 4923,
      "##要": 4924,
      "##Ј": 4925,
      "##ა": 4926,
      "##თ": 4927,
      "##უ": 4928,
      "##მ": 4929,
      "##举": 4930,
      "##牌": 4931,
      "##璐": 4932,
      "##ķ": 4933,
      "##૦": 4934,
      "##૧": 4935,
      "##岛": 4936,
      "##枫": 4937,
      "##ｅ": 4938,
      "##Ю": 4939,
      "##序": 4940,
      "##参": 4941,
      "##想": 4942,
      "##找": 4943,
      "##死": 4944,
      "##溢": 4945,
      "##Ğ": 4946,
      "##자": 4947,
      "##̍": 4948,
      "##遲": 4949,
      "##ṃ": 4950,
      "##易": 4951,
      "##ぶ": 4952,
      "##つ": 4953,
      "##ら": 4954,
      "##２": 4955,
      "##１": 4956,
      "##": 4957,
      "##藏": 4958,
      "##着": 4959,
      "##未": 4960,
      "##开": 4961,
      "##发": 4962,
      "##资": 4963,
      "##源": 4964,
      "##ſ": 4965,
      "##眩": 4966,
      "##潜": 4967,
      "##缩": 4968,
      "##话": 4969,
      "##制": 4970,
      "##": 4971,
      "##೯": 4972,
      "##೮": 4973,
      "##೩": 4974,
      "##湾": 4975,
      "##珍": 4976,
      "##ḇ": 4977,
      "##Ъ": 4978,
      "##則": 4979,
      "##★": 4980,
      "##Ω": 4981,
      "##ﾟ": 4982,
      "##镜": 4983,
      "##˛": 4984,
      "##独": 4985,
      "##立": 4986,
      "##江": 4987,
      "##乏": 4988,
      "##ศ": 4989,
      "##": 4990,
      "##Ф": 4991,
      "##吊": 4992,
      "##事": 4993,
      "##川": 4994,
      "##県": 4995,
      "##曌": 4996,
      "##凶": 4997,
      "##Α": 4998,
      "##照": 4999,
      "##報": 5000,
      "##滞": 5001,
      "##広": 5002,
      "##さ": 5003,
      "##備": 5004,
      "##番": 5005,
      "##だ": 5006,
      "##ょ": 5007,
      "##鵜": 5008,
      "##呑": 5009,
      "##雄": 5010,
      "##城": 5011,
      "##≥": 5012,
      "##セ": 5013,
      "##ス": 5014,
      "##条": 5015,
      "##項": 5016,
      "##废": 5017,
      "##料": 5018,
      "##ტ": 5019,
      "##ე": 5020,
      "##გ": 5021,
      "##ო": 5022,
      "##რ": 5023,
      "##შ": 5024,
      "##ʊ": 5025,
      "##げ": 5026,
      "##ば": 5027,
      "##ლ": 5028,
      "##ậ": 5029,
      "##顗": 5030,
      "##福": 5031,
      "##娃": 5032,
      "##升": 5033,
      "##瓶": 5034,
      "##臈": 5035,
      "##含": 5036,
      "##片": 5037,
      "##ˆ": 5038,
      "##音": 5039,
      "##ฆ": 5040,
      "##ษ": 5041,
      "##二": 5042,
      "##氧": 5043,
      "##碳": 5044,
      "##刺": 5045,
      "##激": 5046,
      "##植": 5047,
      "##گ": 5048,
      "##刘": 5049,
      "##静": 5050,
      "##怡": 5051,
      "##只": 5052,
      "##殻": 5053,
      "##機": 5054,
      "##隊": 5055,
      "##氣": 5056,
      "##ﺤ": 5057,
      "##表": 5058,
      "##你": 5059,
      "##为": 5060,
      "##页": 5061,
      "##面": 5062,
      "##程": 5063,
      "##码": 5064,
      "##头": 5065,
      "##属": 5066,
      "##門": 5067,
      "##ฎ": 5068,
      "##ธ": 5069,
      "##ォ": 5070,
      "##シ": 5071,
      "##ュ": 5072,
      "##利": 5073,
      "##巻": 5074,
      "##̄": 5075,
      "##去": 5076,
      "##ץ": 5077,
      "##術": 5078,
      "##都": 5079,
      "##Ą": 5080,
      "##ỡ": 5081,
      "##果": 5082,
      "##京": 5083,
      "##Ū": 5084,
      "##統": 5085,
      "##井": 5086,
      "##Υ": 5087,
      "##Ρ": 5088,
      "##噛": 5089,
      "##ị": 5090,
      "##门": 5091,
      "##柱": 5092,
      "##ữ": 5093,
      "##竹": 5094,
      "##浦": 5095,
      "##毎": 5096,
      "##載": 5097,
      "##≪": 5098,
      "##崎": 5099,
      "##ộ": 5100,
      "##清": 5101,
      "##Ň": 5102,
      "##권": 5103,
      "##도": 5104,
      "##Ù": 5105,
      "##ồ": 5106,
      "##梨": 5107,
      "##্": 5108,
      "##ল": 5109,
      "##ি": 5110,
      "##ন": 5111,
      "##ট": 5112,
      "##國": 5113,
      "##就": 5114,
      "##故": 5115,
      "##宮": 5116,
      "##博": 5117,
      "##院": 5118,
      "##鄉": 5119,
      "##见": 5120,
      "##ഷ": 5121,
      "##ദ": 5122,
      "##വ": 5123,
      "##ീ": 5124,
      "##പ": 5125,
      "##‌": 5126,
      "##Ь": 5127,
      "##У": 5128,
      "##＄": 5129,
      "##ὶ": 5130,
      "##翻": 5131,
      "##ظ": 5132,
      "##剥": 5133,
      "##对": 5134,
      "##Μ": 5135,
      "##刑": 5136,
      "##ắ": 5137,
      "##ĉ": 5138,
      "##云": 5139,
      "##妻": 5140,
      "##ภ": 5141,
      "##版": 5142,
      "##楽": 5143,
      "##黮": 5144,
      "##‏": 5145,
      "##駄": 5146,
      "##目": 5147,
      "##΄": 5148,
      "##ｿ": 5149,
      "##越": 5150,
      "##壳": 5151,
      "##采": 5152,
      "##磨": 5153,
      "##砂": 5154,
      "##金": 5155,
      "##选": 5156,
      "##ɒ": 5157,
      "##ً": 5158,
      "##腔": 5159,
      "##廣": 5160,
      "##帥": 5161,
      "##鋝": 5162,
      "##ን": 5163,
      "##ዓ": 5164,
      "##ፈ": 5165,
      "##舍": 5166,
      "##ぐ": 5167,
      "##龍": 5168,
      "##徳": 5169,
      "##希": 5170,
      "##堂": 5171,
      "##菜": 5172,
      "##ह": 5173,
      "##प": 5174,
      "##ु": 5175,
      "##暫": 5176,
      "##ự": 5177,
      "##백": 5178,
      "##산": 5179,
      "##宜": 5180,
      "##򮮥": 5181,
      "##エ": 5182,
      "##プ": 5183,
      "##减": 5184,
      "##肥": 5185,
      "##德": 5186,
      "##ˌ": 5187,
      "##嶼": 5188,
      "##舅": 5189,
      "##Ż": 5190,
      "##賢": 5191,
      "##佗": 5192,
      "##美": 5193,
      "##左": 5194,
      "##右": 5195,
      "##撮": 5196,
      "##९": 5197,
      "##०": 5198,
      "##५": 5199,
      "##̤": 5200,
      "##ṳ": 5201,
      "##界": 5202,
      "##丸": 5203,
      "##映": 5204,
      "##ぇ": 5205,
      "##ნ": 5206,
      "##黡": 5207,
      "##招": 5208,
      "##討": 5209,
      "##兵": 5210,
      "##馬": 5211,
      "##館": 5212,
      "##吧": 5213,
      "##臣": 5214,
      "##秀": 5215,
      "##こ": 5216,
      "##ろ": 5217,
      "##ח": 5218,
      "##テ": 5219,
      "##ョ": 5220,
      "##̯": 5221,
      "##跳": 5222,
      "##论": 5223,
      "##坛": 5224,
      "##札": 5225,
      "##ซ": 5226,
      "##凄": 5227,
      "##ं": 5228,
      "##ड": 5229,
      "##ी": 5230,
      "##ग": 5231,
      "##ढ": 5232,
      "##़": 5233,
      "##ব": 5234,
      "##ナ": 5235,
      "##若": 5236,
      "##港": 5237,
      "##ﻁ": 5238,
      "##庚": 5239,
      "##إ": 5240,
      "##转": 5241,
      "##基": 5242,
      "##因": 5243,
      "##活": 5244,
      "##世": 5245,
      "##裂": 5246,
      "##Ѕ": 5247,
      "##暂": 5248,
      "##茜": 5249,
      "##№": 5250,
      "##还": 5251,
      "##知": 5252,
      "##話": 5253,
      "##ằ": 5254,
      "##ớ": 5255,
      "##溯": 5256,
      "##标": 5257,
      "##签": 5258,
      "##善": 5259,
      "##納": 5260,
      "##五": 5261,
      "##ს": 5262,
      "##ெ": 5263,
      "##ன": 5264,
      "##்": 5265,
      "##ை": 5266,
      "##전": 5267,
      "##द": 5268,
      "##श": 5269,
      "##查": 5270,
      "##显": 5271,
      "##示": 5272,
      "##普": 5273,
      "##及": 5274,
      "##率": 5275,
      "##谷": 5276,
      "##歌": 5277,
      "##バ": 5278,
      "##љ": 5279,
      "##┘": 5280,
      "##冊": 5281,
      "##輪": 5282,
      "##聖": 5283,
      "##吹": 5284,
      "##飞": 5285,
      "##讯": 5286,
      "##פ": 5287,
      "##널": 5288,
      "##鋖": 5289,
      "##ፅ": 5290,
      "##ዕ": 5291,
      "##Π": 5292,
      "##დ": 5293,
      "##华": 5294,
      "##共": 5295,
      "##莉": 5296,
      "##迅": 5297,
      "##雷": 5298,
      "##哈": 5299,
      "##拉": 5300,
      "##非": 5301,
      "##洲": 5302,
      "##瞳": 5303,
      "##少": 5304,
      "##女": 5305,
      "##ガ": 5306,
      "##ネ": 5307,
      "##柴": 5308,
      "##": 5309,
      "##ღ": 5310,
      "##ვ": 5311,
      "##華": 5312,
      "##命": 5313,
      "##黨": 5314,
      "##啦": 5315,
      "##ぎ": 5316,
      "##书": 5317,
      "##򲵮": 5318,
      "##Đ": 5319,
      "##坂": 5320,
      "##运": 5321,
      "##动": 5322,
      "##需": 5323,
      "##挑": 5324,
      "##时": 5325,
      "##间": 5326,
      "##郷": 5327,
      "##揃": 5328,
      "##漢": 5329,
      "##Ę": 5330,
      "##广": 5331,
      "##场": 5332,
      "##近": 5333,
      "##建": 5334,
      "##益": 5335,
      "##俊": 5336,
      "##決": 5337,
      "##じ": 5338,
      "##ゃ": 5339,
      "##そ": 5340,
      "##愛": 5341,
      "##礼": 5342,
      "##儀": 5343,
      "##細": 5344,
      "##チ": 5345,
      "##ム": 5346,
      "##常": 5347,
      "##精": 5348,
      "##致": 5349,
      "##超": 5350,
      "##メ": 5351,
      "##پ": 5352,
      "##령": 5353,
      "##佰": 5354,
      "##义": 5355,
      "##卡": 5356,
      "##西": 5357,
      "##ٹ": 5358,
      "##急": 5359,
      "##觉": 5360,
      "##罗": 5361,
      "##ხ": 5362,
      "##글": 5363,
      "##销": 5364,
      "##": 5365,
      "##ṛ": 5366,
      "##剧": 5367,
      "##": 5368,
      "##ボ": 5369,
      "##ڠ": 5370,
      "##ڬ": 5371,
      "##町": 5372,
      "##駅": 5373,
      "##ླ": 5374,
      "##況": 5375,
      "##߮": 5376,
      "##ټ": 5377,
      "##╩": 5378,
      "##闻": 5379,
      "##親": 5380,
      "##敏": 5381,
      "##斗": 5382,
      "##紙": 5383,
      "##什": 5384,
      "##平": 5385,
      "##洛": 5386,
      "##约": 5387,
      "##报": 5388,
      "##息": 5389,
      "##甸": 5390,
      "##奸": 5391,
      "##戴": 5392,
      "##习": 5393,
      "##ึ": 5394,
      "##々": 5395,
      "##ர": 5396,
      "##ம": 5397,
      "##ṣ": 5398,
      "##": 5399,
      "##弁": 5400,
      "##当": 5401,
      "##": 5402,
      "##ா": 5403,
      "##ஷ": 5404,
      "##ி": 5405,
      "##ங": 5406,
      "##ட": 5407,
      "##潭": 5408,
      "##縣": 5409,
      "##冤": 5410,
      "##わ": 5411,
      "##癪": 5412,
      "##障": 5413,
      "##媛": 5414,
      "##配": 5415,
      "##̇": 5416,
      "##贊": 5417,
      "##并": 5418,
      "##煮": 5419,
      "##诘": 5420,
      "##": 5421,
      "##机": 5422,
      "##客": 5423,
      "##刨": 5424,
      "##纹": 5425,
      "##舖": 5426,
      "##ې": 5427,
      "##择": 5428,
      "##望": 5429,
      "##模": 5430,
      "##板": 5431,
      "##渲": 5432,
      "##울": 5433,
      "##健": 5434,
      "##秋": 5435,
      "##担": 5436,
      "##已": 5437,
      "##经": 5438,
      "##省": 5439,
      "##级": 5440,
      "##永": 5441,
      "##桃": 5442,
      "##圆": 5443,
      "##減": 5444,
      "##指": 5445,
      "##截": 5446,
      "##": 5447,
      "##惯": 5448,
      "##೬": 5449,
      "##೫": 5450,
      "##䟩": 5451,
      "##花": 5452,
      "##隆": 5453,
      "##鋓": 5454,
      "##黵": 5455,
      "##酸": 5456,
      "##盐": 5457,
      "##储": 5458,
      "##备": 5459,
      "##足": 5460,
      "##使": 5461,
      "##几": 5462,
      "##森": 5463,
      "##纪": 5464,
      "##證": 5465,
      "##マ": 5466,
      "##ェ": 5467,
      "##ホ": 5468,
      "##調": 5469,
      "##べ": 5470,
      "##问": 5471,
      "##毁": 5472,
      "##掉": 5473,
      "##整": 5474,
      "##个": 5475,
      "##互": 5476,
      "##ổ": 5477,
      "##ු": 5478,
      "##ව": 5479,
      "##ර": 5480,
      "##ध": 5481,
      "##容": 5482,
      "##谈": 5483,
      "##判": 5484,
      "##破": 5485,
      "##里": 5486,
      "##址": 5487,
      "##八": 5488,
      "##件": 5489,
      "##ঙ": 5490,
      "##傳": 5491,
      "##訊": 5492,
      "##鉄": 5493,
      "##沿": 5494,
      "##線": 5495,
      "##９": 5496,
      "##７": 5497,
      "##署": 5498,
      "##ĭ": 5499,
      "##হ": 5500,
      "##প": 5501,
      "##ু": 5502,
      "##ত": 5503,
      "##寄": 5504,
      "##어": 5505,
      "##让": 5506,
      "##冷": 5507,
      "##农": 5508,
      "##业": 5509,
      "##痴": 5510,
      "##態": 5511,
      "##ǫ": 5512,
      "##泉": 5513,
      "##途": 5514,
      "##宗": 5515,
      "##戸": 5516,
      "##詳": 5517,
      "##鋑": 5518,
      "##济": 5519,
      "##展": 5520,
      "##ợ": 5521,
      "##려": 5522,
      "##詠": 5523,
      "##割": 5524,
      "##舫": 5525,
      "##氏": 5526,
      "##坐": 5527,
      "##幡": 5528,
      "##무": 5529,
      "##로": 5530,
      "##陽": 5531,
      "##鋒": 5532,
      "##塩": 5533,
      "##控": 5534,
      "##键": 5535,
      "##移": 5536,
      "##耳": 5537,
      "##寤": 5538,
      "##ֵ": 5539,
      "##溜": 5540,
      "##付": 5541,
      "##角": 5542,
      "##詰": 5543,
      "##乎": 5544,
      "##巧": 5545,
      "##夹": 5546,
      "##措": 5547,
      "##施": 5548,
      "##造": 5549,
      "##险": 5550,
      "##え": 5551,
      "##ọ": 5552,
      "##Ź": 5553,
      "##杭": 5554,
      "##磁": 5555,
      "##悬": 5556,
      "##浮": 5557,
      "##线": 5558,
      "##证": 5559,
      "##兴": 5560,
      "##Ľ": 5561,
      "##ં": 5562,
      "##ય": 5563,
      "##ુ": 5564,
      "##ક": 5565,
      "##્": 5566,
      "##ત": 5567,
      "##库": 5568,
      "##宫": 5569,
      "##風": 5570,
      "##舐": 5571,
      "##򮬩": 5572,
      "##防": 5573,
      "##园": 5574,
      "##ϊ": 5575,
      "##识": 5576,
      "##别": 5577,
      "##棲": 5578,
      "##宏": 5579,
      "##汤": 5580,
      "##勿": 5581,
      "##号": 5582,
      "##ฐ": 5583,
      "##ฒ": 5584,
      "##康": 5585,
      "##Ζ": 5586,
      "##宝": 5587,
      "##ǘ": 5588,
      "##郑": 5589,
      "##汉": 5590,
      "##龙": 5591,
      "##认": 5592,
      "##顯": 5593,
      "##祖": 5594,
      "##叫": 5595,
      "##灣": 5596,
      "##復": 5597,
      "##節": 5598,
      "##田": 5599,
      "##空": 5600,
      "##太": 5601,
      "##严": 5602,
      "##束": 5603,
      "##呂": 5604,
      "##航": 5605,
      "##视": 5606,
      "##曝": 5607,
      "##竞": 5608,
      "##透": 5609,
      "##浴": 5610,
      "##室": 5611,
      "##与": 5612,
      "##友": 5613,
      "##洗": 5614,
      "##鸳": 5615,
      "##鸯": 5616,
      "##李": 5617,
      "##锋": 5618,
      "##陵": 5619,
      "##ǣ": 5620,
      "##ೈ": 5621,
      "##痛": 5622,
      "##起": 5623,
      "##步": 5624,
      "##核": 5625,
      "##工": 5626,
      "##厂": 5627,
      "##却": 5628,
      "##没": 5629,
      "##检": 5630,
      "##验": 5631,
      "##最": 5632,
      "##螨": 5633,
      "##実": 5634,
      "##無": 5635,
      "##他": 5636,
      "##类": 5637,
      "##吨": 5638,
      "##洁": 5639,
      "##鎚": 5640,
      "##囧": 5641,
      "##ბ": 5642,
      "##ブ": 5643,
      "##鰈": 5644,
      "##低": 5645,
      "##穷": 5646,
      "##购": 5647,
      "##买": 5648,
      "##鹈": 5649,
      "##湖": 5650,
      "##ฯ": 5651,
      "##퍼": 5652,
      "##알": 5653,
      "##딘": 5654,
      "##보": 5655,
      "##이": 5656,
      "##ḫ": 5657,
      "##律": 5658,
      "##调": 5659,
      "##后": 5660,
      "##格": 5661,
      "##收": 5662,
      "##ά": 5663,
      "##∶": 5664,
      "##𲠤": 5665,
      "##考": 5666,
      "##鰄": 5667,
      "##鰃": 5668,
      "##ピ": 5669,
      "##澤": 5670,
      "##ầ": 5671,
      "##ぢ": 5672,
      "##遪": 5673,
      "##老": 5674,
      "##顶": 5675,
      "##業": 5676,
      "##们": 5677,
      "##舁": 5678,
      "##ℓ": 5679,
      "##朱": 5680,
      "##ｫ": 5681,
      "##貌": 5682,
      "##辛": 5683,
      "##捷": 5684,
      "##運": 5685,
      "##炯": 5686,
      "##咬": 5687,
      "##紧": 5688,
      "##牙": 5689,
      "##檀": 5690,
      "##樹": 5691,
      "##臧": 5692,
      "##徽": 5693,
      "##ບ": 5694,
      "##智": 5695,
      "##旭": 5696,
      "##泰": 5697,
      "##另": 5698,
      "##摆": 5699,
      "##脱": 5700,
      "##贫": 5701,
      "##困": 5702,
      "##那": 5703,
      "##么": 5704,
      "##": 5705,
      "##溪": 5706,
      "##筆": 5707,
      "##談": 5708,
      "##ზ": 5709,
      "##潟": 5710,
      "##あ": 5711,
      "##カ": 5712,
      "##幾": 5713,
      "##欢": 5714,
      "##迷": 5715,
      "##观": 5716,
      "##念": 5717,
      "##赞": 5718,
      "##엘": 5719,
      "##ử": 5720,
      "##۱": 5721,
      "##۶": 5722,
      "##園": 5723,
      "##濟": 5724,
      "##짝": 5725,
      "##님": 5726,
      "##ហ": 5727,
      "##រ": 5728,
      "##ដ": 5729,
      "##្": 5730,
      "##ឋ": 5731,
      "##訃": 5732,
      "##菱": 5733,
      "##均": 5734,
      "##Ő": 5735,
      "##費": 5736,
      "##آ": 5737,
      "##凉": 5738,
      "##⋅": 5739,
      "##종": 5740,
      "##ᓄ": 5741,
      "##ᐃ": 5742,
      "##ᑦ": 5743,
      "##由": 5744,
      "##贸": 5745,
      "##洪": 5746,
      "##猛": 5747,
      "##兽": 5748,
      "##萧": 5749,
      "##洒": 5750,
      "##躊": 5751,
      "##躇": 5752,
      "##۲": 5753,
      "##密": 5754,
      "##呼": 5755,
      "##信": 5756,
      "##悩": 5757,
      "##ہ": 5758,
      "##ۂ": 5759,
      "##宣": 5760,
      "##円": 5761,
      "##遷": 5762,
      "##ĩ": 5763,
      "##층": 5764,
      "##대": 5765,
      "##법": 5766,
      "##당": 5767,
      "##好": 5768,
      "##나": 5769,
      "##티": 5770,
      "##ｓ": 5771,
      "##군": 5772,
      "##Φ": 5773,
      "##硬": 5774,
      "##氷": 5775,
      "##ባ": 5776,
      "##ዋ": 5777,
      "##": 5778,
      "##習": 5779,
      "##劇": 5780,
      "##難": 5781,
      "##似": 5782,
      "##": 5783,
      "##ህ": 5784,
      "##訓": 5785,
      "##論": 5786,
      "##鱼": 5787,
      "##ｈ": 5788,
      "##ｏ": 5789,
      "##ｕ": 5790,
      "##ｌ": 5791,
      "##ｄ": 5792,
      "##Ť": 5793,
      "##黒": 5794,
      "##银": 5795,
      "##深": 5796,
      "##灰": 5797,
      "##體": 5798,
      "##怪": 5799,
      "##再": 5800,
      "##✿": 5801,
      "##ฉ": 5802,
      "##別": 5803,
      "##刀": 5804,
      "##һ": 5805,
      "##泽": 5806,
      "##集": 5807,
      "##∼": 5808,
      "##仲": 5809,
      "##陈": 5810,
      "##铭": 5811,
      "##政": 5812,
      "##ʲ": 5813,
      "##像": 5814,
      "##ほ": 5815,
      "##ぼ": 5816,
      "##Į": 5817,
      "##ⲉ": 5818,
      "##ⲣ": 5819,
      "##ⲟ": 5820,
      "##ⲩ": 5821,
      "##͡": 5822,
      "##ɬ": 5823,
      "##₵": 5824,
      "##背": 5825,
      "##ɤ": 5826,
      "##곡": 5827,
      "##ു": 5828,
      "##萄": 5829,
      "##羽": 5830,
      "##頂": 5831,
      "##赶": 5832,
      "##兰": 5833,
      "##牛": 5834,
      "##Ů": 5835,
      "##每": 5836,
      "##회": 5837,
      "##ฤ": 5838,
      "##ʁ": 5839,
      "##򲤥": 5840,
      "##假": 5841,
      "##居": 5842,
      "##烧": 5843,
      "##肉": 5844,
      "##∞": 5845,
      "##雪": 5846,
      "##齋": 5847,
      "##唸": 5848,
      "##雲": 5849,
      "##ʦ": 5850,
      "##셀": 5851,
      "##۸": 5852,
      "##始": 5853,
      "##싱": 5854,
      "##턴": 5855,
      "##黄": 5856,
      "##势": 5857,
      "##稱": 5858,
      "##貮": 5859,
      "##其": 5860,
      "##태": 5861,
      "##노": 5862,
      "##키": 5863,
      "##오": 5864,
      "##罪": 5865,
      "##続": 5866,
      "##申": 5867,
      "##書": 5868,
      "##油": 5869,
      "##ሽ": 5870,
      "##๑": 5871,
      "##味": 5872,
      "##届": 5873,
      "##荣": 5874,
      "##身": 5875,
      "##乐": 5876,
      "##形": 5877,
      "##婷": 5878,
      "##蔚": 5879,
      "##ራ": 5880,
      "##芝": 5881,
      "##砕": 5882,
      "##ŝ": 5883,
      "##ặ": 5884,
      "##叡": 5885,
      "##豆": 5886,
      "##据": 5887,
      "##颐": 5888,
      "##ご": 5889,
      "##覧": 5890,
      "##題": 5891,
      "##从": 5892,
      "##短": 5893,
      "##缺": 5894,
      "##吴": 5895,
      "##玉": 5896,
      "##羲": 5897,
      "##ء": 5898,
      "##Ŀ": 5899,
      "##火": 5900,
      "##や": 5901,
      "##飛": 5902,
      "##栽": 5903,
      "##答": 5904,
      "##ই": 5905,
      "##ワ": 5906,
      "##綺": 5907,
      "##麗": 5908,
      "##ˑ": 5909,
      "##へ": 5910,
      "##ሜ": 5911,
      "##ሪ": 5912,
      "##教": 5913,
      "##ụ": 5914,
      "##庫": 5915,
      "##伊": 5916,
      "##ビ": 5917,
      "##垣": 5918,
      "##师": 5919,
      "##承": 5920,
      "##恩": 5921,
      "##枚": 5922,
      "##師": 5923,
      "##撤": 5924,
      "##๊": 5925,
      "##ັ": 5926,
      "##ດ": 5927,
      "##ຖ": 5928,
      "##ຸ": 5929,
      "##ມ": 5930,
      "##ງ": 5931,
      "##ຄ": 5932,
      "##ນ": 5933,
      "##ニ": 5934,
      "##旱": 5935,
      "##۩": 5936,
      "##۞": 5937,
      "##지": 5938,
      "##单": 5939,
      "##應": 5940,
      "##熊": 5941,
      "##迫": 5942,
      "##妨": 5943,
      "##碍": 5944,
      "##焦": 5945,
      "##点": 5946,
      "##ミ": 5947,
      "##姆": 5948,
      "##斯": 5949,
      "##丹": 5950,
      "##시": 5951,
      "##პ": 5952,
      "##余": 5953,
      "##晏": 5954,
      "##損": 5955,
      "##幸": 5956,
      "##妤": 5957,
      "##剣": 5958,
      "##য": 5959,
      "##়": 5960,
      "##ো": 5961,
      "##া": 5962,
      "##ट": 5963,
      "##货": 5964,
      "##谋": 5965,
      "##冰": 5966,
      "##비": 5967,
      "##엠": 5968,
      "##鹅": 5969,
      "##极": 5970,
      "##ǝ": 5971,
      "##গ": 5972,
      "##鮮": 5973,
      "##問": 5974,
      "##鴻": 5975,
      "##才": 5976,
      "##真": 5977,
      "##威": 5978,
      "##胁": 5979,
      "##極": 5980,
      "##圖": 5981,
      "##ᒥ": 5982,
      "##ᐊ": 5983,
      "##ᓕ": 5984,
      "##ᑲ": 5985,
      "##队": 5986,
      "##ڤ": 5987,
      "##奇": 5988,
      "##蹟": 5989,
      "##澳": 5990,
      "##逢": 5991,
      "##賈": 5992,
      "##男": 5993,
      "##寶": 5994,
      "##ṇ": 5995,
      "##屈": 5996,
      "##盗": 5997,
      "##専": 5998,
      "##ベ": 5999,
      "##კ": 6000,
      "##爱": 6001,
      "##영": 6002,
      "##훈": 6003,
      "##变": 6004,
      "##否": 6005,
      "##确": 6006,
      "##损": 6007,
      "##護": 6008,
      "##臓": 6009,
      "##楼": 6010,
      "##燗": 6011,
      "##娱": 6012,
      "##ἠ": 6013,
      "##۳": 6014,
      "##伟": 6015,
      "##√": 6016,
      "##ੰ": 6017,
      "##ਡ": 6018,
      "##ੀ": 6019,
      "##ਗ": 6020,
      "##ੜ": 6021,
      "##੍": 6022,
      "##ਹ": 6023,
      "##ﻫ": 6024,
      "##辑": 6025,
      "##听": 6026,
      "##称": 6027,
      "##ٌ": 6028,
      "##■": 6029,
      "##資": 6030,
      "##頭": 6031,
      "##款": 6032,
      "##ྔ": 6033,
      "##ོ": 6034,
      "##ན": 6035,
      "##೦": 6036,
      "##೧": 6037,
      "##逃": 6038,
      "##仪": 6039,
      "##ɜ": 6040,
      "##ৰ": 6041,
      "##殊": 6042,
      "##尘": 6043,
      "##̡": 6044,
      "##亜": 6045,
      "##寧": 6046,
      "##主": 6047,
      "##ẩ": 6048,
      "##누": 6049,
      "##焼": 6050,
      "##雅": 6051,
      "##ỳ": 6052,
      "##圳": 6053,
      "##铁": 6054,
      "##▒": 6055,
      "##│": 6056,
      "##脖": 6057,
      "##鰎": 6058,
      "##ष": 6059,
      "##代": 6060,
      "##競": 6061,
      "##括": 6062,
      "##拼": 6063,
      "##顷": 6064,
      "##販": 6065,
      "##売": 6066,
      "##班": 6067,
      "##飼": 6068,
      "##체": 6069,
      "##ጨ": 6070,
      "##ረ": 6071,
      "##ሻ": 6072,
      "##ॉ": 6073,
      "##战": 6074,
      "##保": 6075,
      "##志": 6076,
      "##朗": 6077,
      "##뱅": 6078,
      "##ɡ": 6079,
      "##摇": 6080,
      "##尾": 6081,
      "##贤": 6082,
      "##𐍃": 6083,
      "##𐌰": 6084,
      "##𐌽": 6085,
      "##𐌼": 6086,
      "##𐌴": 6087,
      "##𐍉": 6088,
      "##𐌸": 6089,
      "##ೆ": 6090,
      "##ೖ": 6091,
      "##草": 6092,
      "##绪": 6093,
      "##ئ": 6094,
      "##摂": 6095,
      "##請": 6096,
      "##瞻": 6097,
      "##۴": 6098,
      "##喫": 6099,
      "##മ": 6100,
      "##ത": 6101,
      "##ẻ": 6102,
      "##奘": 6103,
      "##Χ": 6104,
      "##躍": 6105,
      "##渡": 6106,
      "##惑": 6107,
      "##星": 6108,
      "##農": 6109,
      "##私": 6110,
      "##噌": 6111,
      "##鍋": 6112,
      "##間": 6113,
      "##盛": 6114,
      "##ɕ": 6115,
      "##贞": 6116,
      "##酎": 6117,
      "##મ": 6118,
      "##ે": 6119,
      "##ર": 6120,
      "##િ": 6121,
      "##ા": 6122,
      "##₁": 6123,
      "##秉": 6124,
      "##官": 6125,
      "##び": 6126,
      "##寳": 6127,
      "##₂": 6128,
      "##玄": 6129,
      "##何": 6130,
      "##睛": 6131,
      "##坡": 6132,
      "##ứ": 6133,
      "##┴": 6134,
      "##還": 6135,
      "##姦": 6136,
      "##ል": 6137,
      "##筑": 6138,
      "##ノ": 6139,
      "##测": 6140,
      "##圓": 6141,
      "##悟": 6142,
      "##瞎": 6143,
      "##搞": 6144,
      "##拒": 6145,
      "##绝": 6146,
      "##置": 6147,
      "##评": 6148,
      "##则": 6149,
      "##燃": 6150,
      "##ு": 6151,
      "##次": 6152,
      "##승": 6153,
      "##陶": 6154,
      "##耶": 6155,
      "##获": 6156,
      "##季": 6157,
      "##東": 6158,
      "##ʰ": 6159,
      "##구": 6160,
      "##정": 6161,
      "##课": 6162,
      "##Ɩ": 6163,
      "##Ɲ": 6164,
      "##Ɠ": 6165,
      "##Ƭ": 6166,
      "##Ơ": 6167,
      "##Ȥ": 6168,
      "##ۆ": 6169,
      "##Σ": 6170,
      "##翁": 6171,
      "##跋": 6172,
      "##扈": 6173,
      "##월": 6174,
      "##⃛": 6175,
      "##Ǵ": 6176,
      "##沙": 6177,
      "##堆": 6178,
      "##塔": 6179,
      "##临": 6180,
      "##적": 6181,
      "##即": 6182,
      "##监": 6183,
      "##构": 6184,
      "##强": 6185,
      "##烈": 6186,
      "##反": 6187,
      "##岡": 6188,
      "##ゥ": 6189,
      "##ゲ": 6190,
      "##̆": 6191,
      "##乌": 6192,
      "##打": 6193,
      "##座": 6194,
      "##ལ": 6195,
      "##འ": 6196,
      "##ི": 6197,
      "##參": 6198,
      "##贷": 6199,
      "##协": 6200,
      "##议": 6201,
      "##ざ": 6202,
      "##准": 6203,
      "##ˁ": 6204,
      "##樓": 6205,
      "##村": 6206,
      "##薯": 6207,
      "##抗": 6208,
      "##虫": 6209,
      "##ๆ": 6210,
      "##済": 6211,
      "##逆": 6212,
      "##畿": 6213,
      "##轮": 6214,
      "##触": 6215,
      "##벌": 6216,
      "##弔": 6217,
      "##Ꮊ": 6218,
      "##Ꭲ": 6219,
      "##ฑ": 6220,
      "##尽": 6221,
      "##争": 6222,
      "##完": 6223,
      "##": 6224,
      "##ΐ": 6225,
      "##ҡ": 6226,
      "##ज": 6227,
      "##幹": 6228,
      "##票": 6229,
      "##紀": 6230,
      "##ヴ": 6231,
      "##憎": 6232,
      "##団": 6233,
      "##链": 6234,
      "##融": 6235,
      "##循": 6236,
      "##环": 6237,
      "##煙": 6238,
      "##盖": 6239,
      "##勢": 6240,
      "##宁": 6241,
      "##ण": 6242,
      "##帯": 6243,
      "##喂": 6244,
      "##渐": 6245,
      "##械": 6246,
      "##倉": 6247,
      "##Θ": 6248,
      "##纷": 6249,
      "##涌": 6250,
      "##┌": 6251,
      "##└": 6252,
      "##遣": 6253,
      "##梅": 6254,
      "##昇": 6255,
      "##づ": 6256,
      "##ǜ": 6257,
      "##鋞": 6258,
      "##Γ": 6259,
      "##인": 6260,
      "##ぞ": 6261,
      "##髄": 6262,
      "##徹": 6263,
      "##底": 6264,
      "##暴": 6265,
      "##翼": 6266,
      "##恢": 6267,
      "##鈴": 6268,
      "##耀": 6269,
      "##桶": 6270,
      "##창": 6271,
      "##호": 6272,
      "##區": 6273,
      "##●": 6274,
      "##净": 6275,
      "##万": 6276,
      "##众": 6277,
      "##支": 6278,
      "##额": 6279,
      "##茂": 6280,
      "##楠": 6281,
      "##彻": 6282,
      "##막": 6283,
      "##으": 6284,
      "##靳": 6285,
      "##狭": 6286,
      "##黃": 6287,
      "##張": 6288,
      "##霖": 6289,
      "##ケ": 6290,
      "##久": 6291,
      "##殿": 6292,
      "##侍": 6293,
      "##ძ": 6294,
      "##幣": 6295,
      "##呆": 6296,
      "##君": 6297,
      "##儉": 6298,
      "##娥": 6299,
      "##您": 6300,
      "##潮": 6301,
      "##虑": 6302,
      "##索": 6303,
      "##Ʀ": 6304,
      "##ƛ": 6305,
      "##Ƙ": 6306,
      "##員": 6307,
      "##役": 6308,
      "##伐": 6309,
      "##组": 6310,
      "##劳": 6311,
      "##军": 6312,
      "##戻": 6313,
      "##现": 6314,
      "##製": 6315,
      "##禅": 6316,
      "##脑": 6317,
      "##阶": 6318,
      "##►": 6319,
      "##ຈ": 6320,
      "##熨": 6321,
      "##纸": 6322,
      "##鹤": 6323,
      "##疆": 6324,
      "##维": 6325,
      "##吾": 6326,
      "##尔": 6327,
      "##负": 6328,
      "##实": 6329,
      "##错": 6330,
      "##臺": 6331,
      "##腕": 6332,
      "##憩": 6333,
      "##치": 6334,
      "##양": 6335,
      "##推": 6336,
      "##佑": 6337,
      "##丘": 6338,
      "##布": 6339,
      "##夜": 6340,
      "##搅": 6341,
      "##况": 6342,
      "##匠": 6343,
      "##篇": 6344,
      "##個": 6345,
      "##關": 6346,
      "##稅": 6347,
      "##領": 6348,
      "##域": 6349,
      "##사": 6350,
      "##荷": 6351,
      "##钱": 6352,
      "##̣": 6353,
      "##飲": 6354,
      "##胖": 6355,
      "##漫": 6356,
      "##轻": 6357,
      "##許": 6358,
      "##盧": 6359,
      "##续": 6360,
      "##讣": 6361,
      "##决": 6362,
      "##慢": 6363,
      "##ね": 6364,
      "##ヒ": 6365,
      "##ڭ": 6366,
      "##舣": 6367,
      "##१": 6368,
      "##ṅ": 6369,
      "##辭": 6370,
      "##覺": 6371,
      "##폐": 6372,
      "##셜": 6373,
      "##고": 6374,
      "##鲞": 6375,
      "##崔": 6376,
      "##臘": 6377,
      "##ʻ": 6378,
      "##孴": 6379,
      "##滨": 6380,
      "##嵥": 6381,
      "##狐": 6382,
      "##疑": 6383,
      "##紹": 6384,
      "##♪": 6385,
      "##ई": 6386,
      "##検": 6387,
      "##్": 6388,
      "##ర": 6389,
      "##ద": 6390,
      "##ె": 6391,
      "##ౕ": 6392,
      "##శ": 6393,
      "##夫": 6394,
      "##警": 6395,
      "##告": 6396,
      "##粉": 6397,
      "##ど": 6398,
      "##臂": 6399,
      "##挡": 6400,
      "##ġ": 6401,
      "##旅": 6402,
      "##礱": 6403,
      "##": 6404,
      "##루": 6405,
      "##蓋": 6406,
      "##夷": 6407,
      "##呀": 6408,
      "##伝": 6409,
      "##트": 6410,
      "##번": 6411,
      "##ฮ": 6412,
      "##尿": 6413,
      "##𧵮": 6414,
      "##股": 6415,
      "##경": 6416,
      "##": 6417,
      "##峽": 6418,
      "##棒": 6419,
      "##材": 6420,
      "##糸": 6421,
      "##乾": 6422,
      "##朝": 6423,
      "##ぷ": 6424,
      "##遽": 6425,
      "##梁": 6426,
      "##ヌ": 6427,
      "##會": 6428,
      "##満": 6429,
      "##返": 6430,
      "##游": 6431,
      "##记": 6432,
      "##态": 6433,
      "##千": 6434,
      "##ɲ": 6435,
      "##ɵ": 6436,
      "##ỏ": 6437,
      "##鐵": 6438,
      "##Ҳ": 6439,
      "##ҳ": 6440,
      "##๋": 6441,
      "##爾": 6442,
      "##濱": 6443,
      "##थ": 6444,
      "##存": 6445,
      "##校": 6446,
      "##挂": 6447,
      "##锦": 6448,
      "##写": 6449,
      "##妖": 6450,
      "##灾": 6451,
      "##祸": 6452,
      "##Ĺ": 6453,
      "##衆": 6454,
      "##ⁿ": 6455,
      "##莹": 6456,
      "##剩": 6457,
      "##麩": 6458,
      "##転": 6459,
      "##框": 6460,
      "##送": 6461,
      "##♠": 6462,
      "##席": 6463,
      "##逸": 6464,
      "##香": 6465,
      "##譯": 6466,
      "##阿": 6467,
      "##巴": 6468,
      "##投": 6469,
      "##側": 6470,
      "##環": 6471,
      "##状": 6472,
      "##қ": 6473,
      "##夕": 6474,
      "##节": 6475,
      "##터": 6476,
      "##鱲": 6477,
      "##露": 6478,
      "##㎡": 6479,
      "##浄": 6480,
      "##瑠": 6481,
      "##璃": 6482,
      "##屯": 6483,
      "##翠": 6484,
      "##衣": 6485,
      "##例": 6486,
      "##ެ": 6487,
      "##މ": 6488,
      "##ރ": 6489,
      "##ި": 6490,
      "##ކ": 6491,
      "##ާ": 6492,
      "##某": 6493,
      "##患": 6494,
      "##蔓": 6495,
      "##峻": 6496,
      "##誓": 6497,
      "##ở": 6498,
      "##ా": 6499,
      "##గ": 6500,
      "##జ": 6501,
      "##ు": 6502,
      "##న": 6503,
      "##క": 6504,
      "##ొ": 6505,
      "##ం": 6506,
      "##డ": 6507,
      "##齡": 6508,
      "##ቀ": 6509,
      "##ም": 6510,
      "##ሓ": 6511,
      "##溝": 6512,
      "##婁": 6513,
      "##국": 6514,
      "##ዲ": 6515,
      "##한": 6516,
      "##碧": 6517,
      "##避": 6518,
      "##ᒃ": 6519,
      "##야": 6520,
      "##ĵ": 6521,
      "##ɣ": 6522,
      "##具": 6523,
      "##般": 6524,
      "##薇": 6525,
      "##架": 6526,
      "##ጽ": 6527,
      "##ḗ": 6528,
      "##岸": 6529,
      "##ھ": 6530,
      "##婦": 6531,
      "##ẵ": 6532,
      "##修": 6533,
      "##拟": 6534,
      "##述": 6535,
      "##说": 6536,
      "##빛": 6537,
      "##에": 6538,
      "##￡": 6539,
      "##幌": 6540,
      "##敦": 6541,
      "##召": 6542,
      "##阻": 6543,
      "##挠": 6544,
      "##ฝ": 6545,
      "##̀": 6546,
      "##灯": 6547,
      "##墟": 6548,
      "##揚": 6549,
      "##馆": 6550,
      "##任": 6551,
      "##预": 6552,
      "##服": 6553,
      "##淫": 6554,
      "##我": 6555,
      "##河": 6556,
      "##阜": 6557,
      "##須": 6558,
      "##賀": 6559,
      "##န": 6560,
      "##္": 6561,
      "##ေ": 6562,
      "##ရ": 6563,
      "##ဝ": 6564,
      "##ဟ": 6565,
      "##린": 6566,
      "##岐": 6567,
      "##橋": 6568,
      "##興": 6569,
      "##號": 6570,
      "##血": 6571,
      "##矿": 6572,
      "##ሥ": 6573,
      "##መ": 6574,
      "##锈": 6575,
      "##钢": 6576,
      "##汁": 6577,
      "##遭": 6578,
      "##忻": 6579,
      "##終": 6580,
      "##堤": 6581,
      "##灌": 6582,
      "##溉": 6583,
      "##": 6584,
      "##જ": 6585,
      "##舩": 6586,
      "##򴩧": 6587,
      "##녀": 6588,
      "##३": 6589,
      "##护": 6590,
      "##稳": 6591,
      "##踌": 6592,
      "##겜": 6593,
      "##墩": 6594,
      "##獄": 6595,
      "##ễ": 6596,
      "##献": 6597,
      "##堰": 6598,
      "##ể": 6599,
      "##讨": 6600,
      "##桩": 6601,
      "##ὺ": 6602,
      "##卫": 6603,
      "##跟": 6604,
      "##关": 6605,
      "##寨": 6606,
      "##哥": 6607,
      "##℃": 6608,
      "##블": 6609,
      "##經": 6610,
      "##册": 6611,
      "##̶": 6612,
      "##ʋ": 6613,
      "##ῑ": 6614,
      "##繁": 6615,
      "##鸡": 6616,
      "##疗": 6617,
      "##值": 6618,
      "##凸": 6619,
      "##微": 6620,
      "##奚": 6621,
      "##˘": 6622,
      "##ோ": 6623,
      "##ல": 6624,
      "##ப": 6625,
      "##ூ": 6626,
      "##夛": 6627,
      "##̱": 6628,
      "##英": 6629,
      "##著": 6630,
      "##膚": 6631,
      "##庭": 6632,
      "##琲": 6633,
      "##適": 6634,
      "##過": 6635,
      "##Ẳ": 6636,
      "##ـ": 6637,
      "##ქ": 6638,
      "##ཚ": 6639,
      "##͘": 6640,
      "##ｲ": 6641,
      "##経": 6642,
      "##壮": 6643,
      "##ぃ": 6644,
      "##ｔ": 6645,
      "##房": 6646,
      "##颖": 6647,
      "##创": 6648,
      "##ḏ": 6649,
      "##ሊ": 6650,
      "##ተ": 6651,
      "##疏": 6652,
      "##忽": 6653,
      "##复": 6654,
      "##杂": 6655,
      "##远": 6656,
      "##ষ": 6657,
      "##ˡ": 6658,
      "##純": 6659,
      "##හ": 6660,
      "##娄": 6661,
      "##群": 6662,
      "##狗": 6663,
      "##ధ": 6664,
      "##卖": 6665,
      "##̂": 6666,
      "##涩": 6667,
      "##它": 6668,
      "##供": 6669,
      "##塞": 6670,
      "##缓": 6671,
      "##辱": 6672,
      "##伎": 6673,
      "##寻": 6674,
      "##ŵ": 6675,
      "##順": 6676,
      "##期": 6677,
      "##匡": 6678,
      "##烏": 6679,
      "##驗": 6680,
      "##採": 6681,
      "##圏": 6682,
      "##案": 6683,
      "##仅": 6684,
      "##皮": 6685,
      "##ད": 6686,
      "##ፍ": 6687,
      "##서": 6688,
      "##는": 6689,
      "##刚": 6690,
      "##慎": 6691,
      "##ฏ": 6692,
      "##娣": 6693,
      "##仙": 6694,
      "##ῦ": 6695,
      "##古": 6696,
      "##骨": 6697,
      "##董": 6698,
      "##祭": 6699,
      "##终": 6700,
      "##专": 6701,
      "##稿": 6702,
      "##ಶ": 6703,
      "##್": 6704,
      "##ವ": 6705,
      "##ರ": 6706,
      "##ಯ": 6707,
      "##ಾ": 6708,
      "##₣": 6709,
      "##遗": 6710,
      "##憾": 6711,
      "##ĸ": 6712,
      "##沌": 6713,
      "##娜": 6714,
      "##ȃ": 6715,
      "##译": 6716,
      "##ῖ": 6717,
      "##周": 6718,
      "##末": 6719,
      "##계": 6720,
      "##屏": 6721,
      "##瘤": 6722,
      "##排": 6723,
      "##泄": 6724,
      "##⅓": 6725,
      "##固": 6726,
      "##የ": 6727,
      "##ው": 6728,
      "##試": 6729,
      "##験": 6730,
      "##岗": 6731,
      "##莞": 6732,
      "##ӳ": 6733,
      "##趋": 6734,
      "##伸": 6735,
      "##稀": 6736,
      "##树": 6737,
      "##鰀": 6738,
      "##勝": 6739,
      "##ㄆ": 6740,
      "##ㄇ": 6741,
      "##ㄈ": 6742,
      "##단": 6743,
      "##수": 6744,
      "##ʔ": 6745,
      "##魔": 6746,
      "##監": 6747,
      "##洋": 6748,
      "##崖": 6749,
      "##郡": 6750,
      "##诺": 6751,
      "##靠": 6752,
      "##ٲ": 6753,
      "##昌": 6754,
      "##‍": 6755,
      "##析": 6756,
      "##ే": 6757,
      "##선": 6758,
      "##സ": 6759,
      "##भ": 6760,
      "##韻": 6761,
      "##爆": 6762,
      "##亞": 6763,
      "##實": 6764,
      "##較": 6765,
      "##遊": 6766,
      "##乘": 6767,
      "##聞": 6768,
      "##ச": 6769,
      "##ሰ": 6770,
      "##ነ": 6771,
      "##谢": 6772,
      "##积": 6773,
      "##ǟ": 6774,
      "##坪": 6775,
      "##坝": 6776,
      "##湄": 6777,
      "##∫": 6778,
      "##玲": 6779,
      "##桥": 6780,
      "##丰": 6781,
      "##富": 6782,
      "##印": 6783,
      "##ሴ": 6784,
      "##赛": 6785,
      "##钦": 6786,
      "##킨": 6787,
      "##池": 6788,
      "##优": 6789,
      "##ய": 6790,
      "##த": 6791,
      "##en": 6792,
      "##er": 6793,
      "##ch": 6794,
      "##in": 6795,
      "##es": 6796,
      "##on": 6797,
      "th": 6798,
      "##nd": 6799,
      "##it": 6800,
      "##at": 6801,
      "##ie": 6802,
      "the": 6803,
      "##or": 6804,
      "##is": 6805,
      "##an": 6806,
      "##ar": 6807,
      "##st": 6808,
      "##al": 6809,
      "in": 6810,
      "##ur": 6811,
      "##ion": 6812,
      "##ich": 6813,
      "##un": 6814,
      "##el": 6815,
      "##re": 6816,
      "##as": 6817,
      "##ed": 6818,
      "of": 6819,
      "##om": 6820,
      "##ent": 6821,
      "##le": 6822,
      "##ing": 6823,
      "##ung": 6824,
      "and": 6825,
      "to": 6826,
      "##et": 6827,
      "die": 6828,
      "##ig": 6829,
      "der": 6830,
      "und": 6831,
      "##us": 6832,
      "##ro": 6833,
      "##em": 6834,
      "##il": 6835,
      "##ic": 6836,
      "##ut": 6837,
      "##ol": 6838,
      "ein": 6839,
      "##ir": 6840,
      "##te": 6841,
      "be": 6842,
      "##ra": 6843,
      "##ter": 6844,
      "##eit": 6845,
      "##ation": 6846,
      "##ten": 6847,
      "##ts": 6848,
      "##am": 6849,
      "##ge": 6850,
      "##hr": 6851,
      "##ot": 6852,
      "##ies": 6853,
      "##ul": 6854,
      "al": 6855,
      "is": 6856,
      "##op": 6857,
      "##id": 6858,
      "##uf": 6859,
      "##ct": 6860,
      "##ber": 6861,
      "##iv": 6862,
      "##lich": 6863,
      "zu": 6864,
      "##den": 6865,
      "for": 6866,
      "##der": 6867,
      "an": 6868,
      "re": 6869,
      "##ab": 6870,
      "##ür": 6871,
      "##isch": 6872,
      "##im": 6873,
      "##ier": 6874,
      "Th": 6875,
      "##gen": 6876,
      "on": 6877,
      "##sch": 6878,
      "das": 6879,
      "##icht": 6880,
      "##and": 6881,
      "##ere": 6882,
      "den": 6883,
      "un": 6884,
      "##ly": 6885,
      "that": 6886,
      "##est": 6887,
      "##ess": 6888,
      "##os": 6889,
      "st": 6890,
      "##ein": 6891,
      "##omm": 6892,
      "wh": 6893,
      "##ow": 6894,
      "##ce": 6895,
      "von": 6896,
      "##ach": 6897,
      "im": 6898,
      "pro": 6899,
      "##ers": 6900,
      "##uch": 6901,
      "##um": 6902,
      "##ad": 6903,
      "##ith": 6904,
      "##ort": 6905,
      "wir": 6906,
      "##ell": 6907,
      "con": 6908,
      "er": 6909,
      "##kt": 6910,
      "ver": 6911,
      "In": 6912,
      "ist": 6913,
      "##ff": 6914,
      "with": 6915,
      "auf": 6916,
      "##ver": 6917,
      "für": 6918,
      "##ou": 6919,
      "##urop": 6920,
      "##ay": 6921,
      "##ill": 6922,
      "des": 6923,
      "St": 6924,
      "mit": 6925,
      "are": 6926,
      "##end": 6927,
      "##ind": 6928,
      "##av": 6929,
      "as": 6930,
      "en": 6931,
      "The": 6932,
      "##ck": 6933,
      "##eh": 6934,
      "we": 6935,
      "##iss": 6936,
      "de": 6937,
      "dies": 6938,
      "##eg": 6939,
      "Europ": 6940,
      "##ist": 6941,
      "##pp": 6942,
      "##ik": 6943,
      "ne": 6944,
      "##ft": 6945,
      "##und": 6946,
      "##ag": 6947,
      "##our": 6948,
      "##ungen": 6949,
      "##ust": 6950,
      "##th": 6951,
      "Ver": 6952,
      "##ischen": 6953,
      "##nen": 6954,
      "##ib": 6955,
      "##ant": 6956,
      "als": 6957,
      "##de": 6958,
      "ex": 6959,
      "eine": 6960,
      "##ak": 6961,
      "##ment": 6962,
      "##art": 6963,
      "Un": 6964,
      "dem": 6965,
      "se": 6966,
      "##for": 6967,
      "or": 6968,
      "this": 6969,
      "##ah": 6970,
      "##ity": 6971,
      "##men": 6972,
      "##ive": 6973,
      "##ial": 6974,
      "Sie": 6975,
      "##ate": 6976,
      "##ien": 6977,
      "ge": 6978,
      "wer": 6979,
      "not": 6980,
      "it": 6981,
      "##ern": 6982,
      "##ann": 6983,
      "so": 6984,
      "nicht": 6985,
      "##ave": 6986,
      "sich": 6987,
      "all": 6988,
      "##00": 6989,
      "fr": 6990,
      "An": 6991,
      "##pe": 6992,
      "##la": 6993,
      "werden": 6994,
      "##all": 6995,
      "es": 6996,
      "by": 6997,
      "##iel": 6998,
      "com": 6999,
      "at": 7000,
      "have": 7001,
      "dass": 7002,
      "##ben": 7003,
      "##igh": 7004,
      "##igen": 7005,
      "##ain": 7006,
      "##ass": 7007,
      "aus": 7008,
      "##od": 7009,
      "##if": 7010,
      "Die": 7011,
      "sh": 7012,
      "##uld": 7013,
      "##ub": 7014,
      "you": 7015,
      "##ug": 7016,
      "co": 7017,
      "##tern": 7018,
      "ab": 7019,
      "will": 7020,
      "##oll": 7021,
      "##we": 7022,
      "uns": 7023,
      "über": 7024,
      "##ungs": 7025,
      "##ions": 7026,
      "##aus": 7027,
      "Pr": 7028,
      "which": 7029,
      "Sch": 7030,
      "pr": 7031,
      "##ommiss": 7032,
      "me": 7033,
      "auch": 7034,
      "##ast": 7035,
      "Europe": 7036,
      "##qu": 7037,
      "##pt": 7038,
      "##iz": 7039,
      "was": 7040,
      "##pr": 7041,
      "from": 7042,
      "Pro": 7043,
      "##ahr": 7044,
      "##och": 7045,
      "##ang": 7046,
      "##ard": 7047,
      "um": 7048,
      "us": 7049,
      "##ould": 7050,
      "sch": 7051,
      "##uss": 7052,
      "sind": 7053,
      "##etz": 7054,
      "ch": 7055,
      "##og": 7056,
      "##ure": 7057,
      "##port": 7058,
      "##ran": 7059,
      "##ommission": 7060,
      "##ert": 7061,
      "##ens": 7062,
      "vor": 7063,
      "wird": 7064,
      "##esch": 7065,
      "hab": 7066,
      "##hal": 7067,
      "has": 7068,
      "Re": 7069,
      "##ön": 7070,
      "##ru": 7071,
      "da": 7072,
      "##du": 7073,
      "We": 7074,
      "wor": 7075,
      "##ident": 7076,
      "##mer": 7077,
      "res": 7078,
      "##ss": 7079,
      "##ze": 7080,
      "Er": 7081,
      "##pl": 7082,
      "##ost": 7083,
      "##ine": 7084,
      "##age": 7085,
      "Par": 7086,
      "##oc": 7087,
      "##ous": 7088,
      "##ische": 7089,
      "##enn": 7090,
      "##ud": 7091,
      "##ick": 7092,
      "wie": 7093,
      "##ok": 7094,
      "En": 7095,
      "le": 7096,
      "##ät": 7097,
      "##lie": 7098,
      "##err": 7099,
      "##erv": 7100,
      "##form": 7101,
      "can": 7102,
      "##urch": 7103,
      "am": 7104,
      "Ar": 7105,
      "he": 7106,
      "##ise": 7107,
      "Be": 7108,
      "man": 7109,
      "##keit": 7110,
      "hat": 7111,
      "oder": 7112,
      "ich": 7113,
      "sein": 7114,
      "##her": 7115,
      "##ament": 7116,
      "##itt": 7117,
      "##änd": 7118,
      "##ire": 7119,
      "##ue": 7120,
      "##able": 7121,
      "our": 7122,
      "##ect": 7123,
      "##ia": 7124,
      "##otel": 7125,
      "##ore": 7126,
      "200": 7127,
      "##cc": 7128,
      "##ige": 7129,
      "##tr": 7130,
      "European": 7131,
      "##ations": 7132,
      "zur": 7133,
      "##eren": 7134,
      "also": 7135,
      "##gr": 7136,
      "##beit": 7137,
      "##out": 7138,
      "sie": 7139,
      "##ip": 7140,
      "##ult": 7141,
      "##me": 7142,
      "haben": 7143,
      "Al": 7144,
      "##ational": 7145,
      "ad": 7146,
      "##ap": 7147,
      "comp": 7148,
      "##ical": 7149,
      "##heit": 7150,
      "##tsch": 7151,
      "##ition": 7152,
      "##lichen": 7153,
      "##au": 7154,
      "##ual": 7155,
      "##aft": 7156,
      "##ov": 7157,
      "##ated": 7158,
      "Ein": 7159,
      "##ice": 7160,
      "##tw": 7161,
      "einer": 7162,
      "kön": 7163,
      "##olit": 7164,
      "##ob": 7165,
      "Aus": 7166,
      "Wir": 7167,
      "##ord": 7168,
      "##ac": 7169,
      "##ome": 7170,
      "##aten": 7171,
      "##ark": 7172,
      "##fü": 7173,
      "##iert": 7174,
      "su": 7175,
      "##ne": 7176,
      "##ear": 7177,
      "##ish": 7178,
      "##ction": 7179,
      "##oh": 7180,
      "##per": 7181,
      "Parl": 7182,
      "##ember": 7183,
      "##ement": 7184,
      "##ight": 7185,
      "nach": 7186,
      "reg": 7187,
      "##af": 7188,
      "part": 7189,
      "unter": 7190,
      "einen": 7191,
      "bet": 7192,
      "##ieren": 7193,
      "do": 7194,
      "Fra": 7195,
      "your": 7196,
      "bei": 7197,
      "its": 7198,
      "Das": 7199,
      "##ign": 7200,
      "Union": 7201,
      "##ates": 7202,
      "##är": 7203,
      "##erm": 7204,
      "Mit": 7205,
      "##are": 7206,
      "##yst": 7207,
      "##ew": 7208,
      "cont": 7209,
      "Ab": 7210,
      "gro": 7211,
      "sp": 7212,
      "##ail": 7213,
      "##ite": 7214,
      "##elt": 7215,
      "Ber": 7216,
      "durch": 7217,
      "##ank": 7218,
      "##cht": 7219,
      "19": 7220,
      "##ely": 7221,
      "##vel": 7222,
      "##rat": 7223,
      "##anz": 7224,
      "##ide": 7225,
      "##ake": 7226,
      "It": 7227,
      "go": 7228,
      "##oun": 7229,
      "Vor": 7230,
      "but": 7231,
      "ag": 7232,
      "##ystem": 7233,
      "Ich": 7234,
      "##ian": 7235,
      "##ary": 7236,
      "wur": 7237,
      "##cial": 7238,
      "##hen": 7239,
      "##iff": 7240,
      "können": 7241,
      "there": 7242,
      "##se": 7243,
      "##liche": 7244,
      "Mr": 7245,
      "off": 7246,
      "app": 7247,
      "##ong": 7248,
      "##äs": 7249,
      "##ose": 7250,
      "EU": 7251,
      "tra": 7252,
      "##he": 7253,
      "dar": 7254,
      "Commission": 7255,
      "##ther": 7256,
      "war": 7257,
      "Herr": 7258,
      "inc": 7259,
      "##ör": 7260,
      "spe": 7261,
      "##än": 7262,
      "##hre": 7263,
      "##rie": 7264,
      "would": 7265,
      "##rit": 7266,
      "more": 7267,
      "mö": 7268,
      "##ime": 7269,
      "te": 7270,
      "zum": 7271,
      "ind": 7272,
      "##ance": 7273,
      "their": 7274,
      "##con": 7275,
      "einem": 7276,
      "##tz": 7277,
      "ar": 7278,
      "##chen": 7279,
      "gen": 7280,
      "##ble": 7281,
      "been": 7282,
      "##ese": 7283,
      "##dern": 7284,
      "##ste": 7285,
      "##ommen": 7286,
      "For": 7287,
      "##reat": 7288,
      "##ellen": 7289,
      "##ram": 7290,
      "##imm": 7291,
      "##uß": 7292,
      "##ont": 7293,
      "##ase": 7294,
      "Europä": 7295,
      "##ger": 7296,
      "bes": 7297,
      "##ild": 7298,
      "Ch": 7299,
      "##chn": 7300,
      "Sp": 7301,
      "##glich": 7302,
      "##chte": 7303,
      "This": 7304,
      "one": 7305,
      "acc": 7306,
      "##utz": 7307,
      "dis": 7308,
      "##pf": 7309,
      "kann": 7310,
      "##ack": 7311,
      "##rans": 7312,
      "##oss": 7313,
      "##ück": 7314,
      "diese": 7315,
      "coun": 7316,
      "nur": 7317,
      "##üss": 7318,
      "comm": 7319,
      "Hotel": 7320,
      "fin": 7321,
      "cl": 7322,
      "##act": 7323,
      "##len": 7324,
      "##ht": 7325,
      "##che": 7326,
      "Auf": 7327,
      "De": 7328,
      "##ile": 7329,
      "##ame": 7330,
      "##sten": 7331,
      "up": 7332,
      "##tra": 7333,
      "##one": 7334,
      "##ute": 7335,
      "should": 7336,
      "alle": 7337,
      "rel": 7338,
      "work": 7339,
      "##pro": 7340,
      "Der": 7341,
      "##gt": 7342,
      "new": 7343,
      "Te": 7344,
      "pl": 7345,
      "Reg": 7346,
      "int": 7347,
      "Ge": 7348,
      "##ution": 7349,
      "Le": 7350,
      "##eine": 7351,
      "out": 7352,
      "##ner": 7353,
      "##ike": 7354,
      "##zu": 7355,
      "##gan": 7356,
      "##ges": 7357,
      "ro": 7358,
      "Jahr": 7359,
      "##auf": 7360,
      "Pres": 7361,
      "ob": 7362,
      "soll": 7363,
      "Gr": 7364,
      "##ierung": 7365,
      "##land": 7366,
      "##äsident": 7367,
      "##ün": 7368,
      "dieser": 7369,
      "##ree": 7370,
      "qu": 7371,
      "##igkeit": 7372,
      "Es": 7373,
      "##ient": 7374,
      "##lt": 7375,
      "per": 7376,
      "##ld": 7377,
      "countr": 7378,
      "jed": 7379,
      "##ons": 7380,
      "##geb": 7381,
      "##olle": 7382,
      "##ähr": 7383,
      "##reich": 7384,
      "##be": 7385,
      "Dies": 7386,
      "##ings": 7387,
      "very": 7388,
      "pre": 7389,
      "##gram": 7390,
      "produ": 7391,
      "must": 7392,
      "zw": 7393,
      "who": 7394,
      "inter": 7395,
      "other": 7396,
      "##ktion": 7397,
      "ev": 7398,
      "daß": 7399,
      "noch": 7400,
      "##ehmen": 7401,
      "##bar": 7402,
      "##ities": 7403,
      "Kommission": 7404,
      "ihr": 7405,
      "##lic": 7406,
      "##formation": 7407,
      "##alt": 7408,
      "they": 7409,
      "weit": 7410,
      "pe": 7411,
      "##iet": 7412,
      "##ink": 7413,
      "need": 7414,
      "##ehen": 7415,
      "year": 7416,
      "##ple": 7417,
      "##ade": 7418,
      "##schaft": 7419,
      "##ces": 7420,
      "##ors": 7421,
      "##ve": 7422,
      "intern": 7423,
      "wurde": 7424,
      "##ke": 7425,
      "Se": 7426,
      "President": 7427,
      "##emein": 7428,
      "cons": 7429,
      "only": 7430,
      "ber": 7431,
      "##ater": 7432,
      "mehr": 7433,
      "time": 7434,
      "##ms": 7435,
      "##ph": 7436,
      "like": 7437,
      "supp": 7438,
      "bec": 7439,
      "##schen": 7440,
      "aber": 7441,
      "no": 7442,
      "##olog": 7443,
      "##ele": 7444,
      "##oin": 7445,
      "wenn": 7446,
      "##pos": 7447,
      "about": 7448,
      "polit": 7449,
      "Präsident": 7450,
      "ste": 7451,
      "##üssen": 7452,
      "##glie": 7453,
      "##ren": 7454,
      "ent": 7455,
      "##ible": 7456,
      "any": 7457,
      "##ious": 7458,
      "##ende": 7459,
      "##cts": 7460,
      "prov": 7461,
      "##ced": 7462,
      "serv": 7463,
      "sehr": 7464,
      "##leich": 7465,
      "##ahl": 7466,
      "##xt": 7467,
      "##uen": 7468,
      "##velop": 7469,
      "müssen": 7470,
      "eff": 7471,
      "##ität": 7472,
      "ges": 7473,
      "##ments": 7474,
      "##ally": 7475,
      "##ied": 7476,
      "##up": 7477,
      "em": 7478,
      "unser": 7479,
      "##nah": 7480,
      "Mitglie": 7481,
      "##entr": 7482,
      "##cess": 7483,
      "sow": 7484,
      "bis": 7485,
      "Parlament": 7486,
      "##ans": 7487,
      "sol": 7488,
      "20": 7489,
      "trans": 7490,
      "##oy": 7491,
      "##iament": 7492,
      "Arbeit": 7493,
      "rec": 7494,
      "##els": 7495,
      "##ütz": 7496,
      "##assen": 7497,
      "these": 7498,
      "##onder": 7499,
      "##get": 7500,
      "##ammen": 7501,
      "##schl": 7502,
      "dire": 7503,
      "la": 7504,
      "##aff": 7505,
      "##ook": 7506,
      "##esent": 7507,
      "##arbeit": 7508,
      "##io": 7509,
      "##fahr": 7510,
      "Member": 7511,
      "##ular": 7512,
      "##führ": 7513,
      "vie": 7514,
      "##ring": 7515,
      "##atz": 7516,
      "##twick": 7517,
      "##äh": 7518,
      "##erg": 7519,
      "ins": 7520,
      "Men": 7521,
      "##ument": 7522,
      "##ibt": 7523,
      "##ility": 7524,
      "##fore": 7525,
      "##lin": 7526,
      "##usammen": 7527,
      "##ry": 7528,
      "##wer": 7529,
      "##eln": 7530,
      "import": 7531,
      "##own": 7532,
      "inst": 7533,
      "##erson": 7534,
      "##iden": 7535,
      "##wend": 7536,
      "diesem": 7537,
      "if": 7538,
      "##sta": 7539,
      "##ause": 7540,
      "##irst": 7541,
      "develop": 7542,
      "##ople": 7543,
      "Um": 7544,
      "##ures": 7545,
      "##als": 7546,
      "##igt": 7547,
      "##etzt": 7548,
      "gegen": 7549,
      "such": 7550,
      "Im": 7551,
      "wel": 7552,
      "##ism": 7553,
      "##ßen": 7554,
      "##cy": 7555,
      "##ange": 7556,
      "##wn": 7557,
      "##hnen": 7558,
      "##ays": 7559,
      "ihre": 7560,
      "##fol": 7561,
      "##att": 7562,
      "Unter": 7563,
      "pol": 7564,
      "Europäischen": 7565,
      "##zen": 7566,
      "##fen": 7567,
      "##ks": 7568,
      "##itu": 7569,
      "##ett": 7570,
      "##acht": 7571,
      "sub": 7572,
      "best": 7573,
      "Ma": 7574,
      "##iger": 7575,
      "##ler": 7576,
      "##iven": 7577,
      "Parliament": 7578,
      "##lung": 7579,
      "act": 7580,
      "##ject": 7581,
      "dec": 7582,
      "##ative": 7583,
      "over": 7584,
      "Zeit": 7585,
      "##fl": 7586,
      "conc": 7587,
      "##dition": 7588,
      "gew": 7589,
      "hin": 7590,
      "##ues": 7591,
      "##ific": 7592,
      "##unden": 7593,
      "##rol": 7594,
      "##bs": 7595,
      "So": 7596,
      "##stell": 7597,
      "people": 7598,
      "into": 7599,
      "##ale": 7600,
      "As": 7601,
      "##fer": 7602,
      "my": 7603,
      "were": 7604,
      "sel": 7605,
      "well": 7606,
      "##ats": 7607,
      "Mitglied": 7608,
      "Ges": 7609,
      "##elle": 7610,
      "Mar": 7611,
      "international": 7612,
      "##ices": 7613,
      "gr": 7614,
      "##kte": 7615,
      "Or": 7616,
      "report": 7617,
      "##ugh": 7618,
      "use": 7619,
      "viel": 7620,
      "system": 7621,
      "some": 7622,
      "möchte": 7623,
      "##par": 7624,
      "##ken": 7625,
      "inv": 7626,
      "bel": 7627,
      "kn": 7628,
      "##ri": 7629,
      "##je": 7630,
      "mark": 7631,
      "##conom": 7632,
      "##zeit": 7633,
      "##enden": 7634,
      "##isten": 7635,
      "Über": 7636,
      "what": 7637,
      "bas": 7638,
      "##ühr": 7639,
      "hotel": 7640,
      "hier": 7641,
      "high": 7642,
      "States": 7643,
      "##icher": 7644,
      "##wo": 7645,
      "diff": 7646,
      "##gest": 7647,
      "##cil": 7648,
      "##ound": 7649,
      "##lo": 7650,
      "Coun": 7651,
      "eines": 7652,
      "bed": 7653,
      "incl": 7654,
      "##ace": 7655,
      "##rei": 7656,
      "##rä": 7657,
      "first": 7658,
      "loc": 7659,
      "##uropä": 7660,
      "when": 7661,
      "her": 7662,
      "##ory": 7663,
      "countries": 7664,
      "##very": 7665,
      "geh": 7666,
      "##pre": 7667,
      "than": 7668,
      "most": 7669,
      "##ider": 7670,
      "Kon": 7671,
      "vom": 7672,
      "##vent": 7673,
      "##itte": 7674,
      "eing": 7675,
      "##olitik": 7676,
      "wicht": 7677,
      "hel": 7678,
      "his": 7679,
      "partic": 7680,
      "##ax": 7681,
      "lie": 7682,
      "##teil": 7683,
      "support": 7684,
      "##gel": 7685,
      "Fl": 7686,
      "##ful": 7687,
      "##ages": 7688,
      "them": 7689,
      "under": 7690,
      "##über": 7691,
      "##ating": 7692,
      "##mitt": 7693,
      "##stand": 7694,
      "##ards": 7695,
      "ele": 7696,
      "just": 7697,
      "sa": 7698,
      "##inn": 7699,
      "pla": 7700,
      "dam": 7701,
      "Menschen": 7702,
      "how": 7703,
      "##app": 7704,
      "Council": 7705,
      "polic": 7706,
      "aut": 7707,
      "##oint": 7708,
      "Land": 7709,
      "##kl": 7710,
      "sowie": 7711,
      "europä": 7712,
      "now": 7713,
      "##amen": 7714,
      "##net": 7715,
      "again": 7716,
      "##ond": 7717,
      "##ever": 7718,
      "econom": 7719,
      "important": 7720,
      "Comm": 7721,
      "##äch": 7722,
      "dieses": 7723,
      "make": 7724,
      "Ihr": 7725,
      "##ights": 7726,
      "##tschaft": 7727,
      "room": 7728,
      "He": 7729,
      "##ween": 7730,
      "leg": 7731,
      "sc": 7732,
      "Pl": 7733,
      "##pect": 7734,
      "gibt": 7735,
      "ass": 7736,
      "many": 7737,
      "##halt": 7738,
      "##essen": 7739,
      "between": 7740,
      "Nach": 7741,
      "##oug": 7742,
      "##wor": 7743,
      "##kommen": 7744,
      "##stütz": 7745,
      "##sicht": 7746,
      "techn": 7747,
      "##oth": 7748,
      "##erung": 7749,
      "requ": 7750,
      "propos": 7751,
      "##ict": 7752,
      "##fter": 7753,
      "find": 7754,
      "Verb": 7755,
      "##ließ": 7756,
      "##halb": 7757,
      "fre": 7758,
      "Entwick": 7759,
      "##issen": 7760,
      "market": 7761,
      "poss": 7762,
      "because": 7763,
      "##any": 7764,
      "Mitgliedsta": 7765,
      "Bed": 7766,
      "##ös": 7767,
      "##ives": 7768,
      "zwischen": 7769,
      "10": 7770,
      "min": 7771,
      "Intern": 7772,
      "##ural": 7773,
      "take": 7774,
      "US": 7775,
      "Me": 7776,
      "world": 7777,
      "bereit": 7778,
      "get": 7779,
      "##les": 7780,
      "cre": 7781,
      "##öglich": 7782,
      "##cept": 7783,
      "Bericht": 7784,
      "##bst": 7785,
      "##halten": 7786,
      "##ath": 7787,
      "end": 7788,
      "##ublic": 7789,
      "##ister": 7790,
      "kon": 7791,
      "##ount": 7792,
      "##ware": 7793,
      "##abe": 7794,
      "##fin": 7795,
      "199": 7796,
      "Grund": 7797,
      "##ho": 7798,
      "muss": 7799,
      "##tre": 7800,
      "Art": 7801,
      "##wir": 7802,
      "av": 7803,
      "Produ": 7804,
      "par": 7805,
      "pos": 7806,
      "##arm": 7807,
      "##zial": 7808,
      "##gend": 7809,
      "##blem": 7810,
      "##rough": 7811,
      "hand": 7812,
      "national": 7813,
      "##nung": 7814,
      "cle": 7815,
      "rem": 7816,
      "##mal": 7817,
      "son": 7818,
      "##ote": 7819,
      "good": 7820,
      "op": 7821,
      "unsere": 7822,
      "where": 7823,
      "##igung": 7824,
      "Min": 7825,
      "##atter": 7826,
      "keine": 7827,
      "##dit": 7828,
      "##vern": 7829,
      "##fe": 7830,
      "made": 7831,
      "great": 7832,
      "Ihre": 7833,
      "nat": 7834,
      "disc": 7835,
      "two": 7836,
      "##air": 7837,
      "##ohl": 7838,
      "##ene": 7839,
      "information": 7840,
      "Ihnen": 7841,
      "##eschä": 7842,
      "fe": 7843,
      "##nis": 7844,
      "##uring": 7845,
      "##urn": 7846,
      "##rauch": 7847,
      "Her": 7848,
      "every": 7849,
      "##off": 7850,
      "##achen": 7851,
      "see": 7852,
      "Am": 7853,
      "verb": 7854,
      "del": 7855,
      "##hand": 7856,
      "einz": 7857,
      "years": 7858,
      "Mitgliedstaaten": 7859,
      "had": 7860,
      "even": 7861,
      "##ße": 7862,
      "anderen": 7863,
      "way": 7864,
      "##amil": 7865,
      "mein": 7866,
      "gl": 7867,
      "If": 7868,
      "Europa": 7869,
      "##rag": 7870,
      "through": 7871,
      "##ünd": 7872,
      "vers": 7873,
      "##itz": 7874,
      "##rateg": 7875,
      "Fin": 7876,
      "##unkt": 7877,
      "iss": 7878,
      "##ständ": 7879,
      "##chten": 7880,
      "Zusammen": 7881,
      "those": 7882,
      "direct": 7883,
      "Ex": 7884,
      "Ind": 7885,
      "##ternehmen": 7886,
      "##ionen": 7887,
      "##ents": 7888,
      "##ischer": 7889,
      "Seit": 7890,
      "##dem": 7891,
      "##uer": 7892,
      "##forder": 7893,
      "##por": 7894,
      "Bere": 7895,
      "##üh": 7896,
      "gu": 7897,
      "mo": 7898,
      "##ional": 7899,
      "##aut": 7900,
      "real": 7901,
      "##ium": 7902,
      "##ital": 7903,
      "##ep": 7904,
      "##ichts": 7905,
      "##fort": 7906,
      "##lish": 7907,
      "versch": 7908,
      "##ina": 7909,
      "##ower": 7910,
      "##omp": 7911,
      "##ows": 7912,
      "##geben": 7913,
      "immer": 7914,
      "tr": 7915,
      "order": 7916,
      "##ision": 7917,
      "##weise": 7918,
      "policy": 7919,
      "Länd": 7920,
      "##äm": 7921,
      "tak": 7922,
      "Wenn": 7923,
      "weiter": 7924,
      "may": 7925,
      "##fr": 7926,
      "##ganis": 7927,
      "##trag": 7928,
      "being": 7929,
      "ac": 7930,
      "##eut": 7931,
      "##immer": 7932,
      "##piel": 7933,
      "##dr": 7934,
      "##ellt": 7935,
      "##lick": 7936,
      "##erein": 7937,
      "right": 7938,
      "view": 7939,
      "##uman": 7940,
      "dann": 7941,
      "##ält": 7942,
      "cent": 7943,
      "Haus": 7944,
      "beg": 7945,
      "ke": 7946,
      "##alls": 7947,
      "Wh": 7948,
      "##ituation": 7949,
      "##unity": 7950,
      "includ": 7951,
      "##ete": 7952,
      "##led": 7953,
      "car": 7954,
      "Fr": 7955,
      "num": 7956,
      "##part": 7957,
      "##ußer": 7958,
      "##stit": 7959,
      "##ivers": 7960,
      "There": 7961,
      "##ough": 7962,
      "Bereich": 7963,
      "long": 7964,
      "rest": 7965,
      "##ited": 7966,
      "appro": 7967,
      "##chts": 7968,
      "On": 7969,
      "particular": 7970,
      "belie": 7971,
      "cour": 7972,
      "gel": 7973,
      "wieder": 7974,
      "own": 7975,
      "##ster": 7976,
      "diesen": 7977,
      "##day": 7978,
      "##nahmen": 7979,
      "damit": 7980,
      "Des": 7981,
      "Gro": 7982,
      "At": 7983,
      "##fra": 7984,
      "zwe": 7985,
      "sm": 7986,
      "conf": 7987,
      "mon": 7988,
      "gesch": 7989,
      "wurden": 7990,
      "qual": 7991,
      "##ieden": 7992,
      "ganz": 7993,
      "process": 7994,
      "##aur": 7995,
      "##ior": 7996,
      "program": 7997,
      "##alten": 7998,
      "##istr": 7999,
      "ph": 8000,
      "want": 8001,
      "resp": 8002,
      "beste": 8003,
      "##sel": 8004,
      "fact": 8005,
      "Frau": 8006,
      "##icherheit": 8007,
      "All": 8008,
      "##isse": 8009,
      "##az": 8010,
      "##stru": 8011,
      "##isen": 8012,
      "know": 8013,
      "##eration": 8014,
      "##iness": 8015,
      "cur": 8016,
      "##adt": 8017,
      "bu": 8018,
      "##äl": 8019,
      "bus": 8020,
      "Hand": 8021,
      "##ool": 8022,
      "str": 8023,
      "##ys": 8024,
      "##zeich": 8025,
      "Welt": 8026,
      "stand": 8027,
      "Diese": 8028,
      "Geb": 8029,
      "##str": 8030,
      "main": 8031,
      "area": 8032,
      "red": 8033,
      "##ffent": 8034,
      "##innen": 8035,
      "deb": 8036,
      "quest": 8037,
      "kein": 8038,
      "##eth": 8039,
      "##enz": 8040,
      "##itä": 8041,
      "15": 8042,
      "unserer": 8043,
      "gest": 8044,
      "Rat": 8045,
      "##alk": 8046,
      "##vor": 8047,
      "agre": 8048,
      "Inter": 8049,
      "Con": 8050,
      "form": 8051,
      "You": 8052,
      "Zu": 8053,
      "here": 8054,
      "##old": 8055,
      "term": 8056,
      "##ets": 8057,
      "Bar": 8058,
      "##press": 8059,
      "gut": 8060,
      "ful": 8061,
      "after": 8062,
      "##lar": 8063,
      "habe": 8064,
      "##afts": 8065,
      "##ady": 8066,
      "12": 8067,
      "##hne": 8068,
      "sondern": 8069,
      "##zie": 8070,
      "att": 8071,
      "##ouse": 8072,
      "comple": 8073,
      "##emeins": 8074,
      "##eld": 8075,
      "political": 8076,
      "##round": 8077,
      "public": 8078,
      "Bür": 8079,
      "seine": 8080,
      "##für": 8081,
      "jedoch": 8082,
      "##bens": 8083,
      "Ne": 8084,
      "Europäische": 8085,
      "##urs": 8086,
      "Bes": 8087,
      "incre": 8088,
      "prote": 8089,
      "ide": 8090,
      "place": 8091,
      "##ince": 8092,
      "Information": 8093,
      "##tegr": 8094,
      "Entsch": 8095,
      "Sta": 8096,
      "##ines": 8097,
      "##ruck": 8098,
      "Fre": 8099,
      "##amp": 8100,
      "clear": 8101,
      "concern": 8102,
      "possible": 8103,
      "exc": 8104,
      "##erk": 8105,
      "sim": 8106,
      "##gung": 8107,
      "##gesch": 8108,
      "same": 8109,
      "etw": 8110,
      "##ustr": 8111,
      "##ently": 8112,
      "access": 8113,
      "##laub": 8114,
      "Gen": 8115,
      "##ktiv": 8116,
      "lar": 8117,
      "##ix": 8118,
      "System": 8119,
      "human": 8120,
      "wür": 8121,
      "economic": 8122,
      "sur": 8123,
      "est": 8124,
      "##öl": 8125,
      "##ved": 8126,
      "neue": 8127,
      "##öglichkeit": 8128,
      "could": 8129,
      "##tens": 8130,
      "##ata": 8131,
      "person": 8132,
      "18": 8133,
      "heute": 8134,
      "##raft": 8135,
      "det": 8136,
      "Program": 8137,
      "##nder": 8138,
      "##eral": 8139,
      "##ock": 8140,
      "contin": 8141,
      "Unternehmen": 8142,
      "Br": 8143,
      "number": 8144,
      "Vorschl": 8145,
      "Mitt": 8146,
      "##lagen": 8147,
      "##richt": 8148,
      "say": 8149,
      "Pre": 8150,
      "dr": 8151,
      "Teil": 8152,
      "Fran": 8153,
      "point": 8154,
      "lang": 8155,
      "##eten": 8156,
      "##fach": 8157,
      "development": 8158,
      "offer": 8159,
      "gleich": 8160,
      "then": 8161,
      "does": 8162,
      "Germ": 8163,
      "within": 8164,
      "##obal": 8165,
      "sec": 8166,
      "opp": 8167,
      "201": 8168,
      "level": 8169,
      "##ierte": 8170,
      "##aj": 8171,
      "wen": 8172,
      "##bew": 8173,
      "##weit": 8174,
      "Kolle": 8175,
      "Man": 8176,
      "rights": 8177,
      "##isk": 8178,
      "bre": 8179,
      "##ßnahmen": 8180,
      "##licher": 8181,
      "prof": 8182,
      "Bet": 8183,
      "vis": 8184,
      "##min": 8185,
      "val": 8186,
      "provid": 8187,
      "##iti": 8188,
      "exam": 8189,
      "##ants": 8190,
      "##ood": 8191,
      "##osten": 8192,
      "Is": 8193,
      "##ziel": 8194,
      "Arbeits": 8195,
      "avail": 8196,
      "bereits": 8197,
      "Vers": 8198,
      "##ics": 8199,
      "call": 8200,
      "##uro": 8201,
      "present": 8202,
      "##kehr": 8203,
      "fund": 8204,
      "##sche": 8205,
      "How": 8206,
      "equ": 8207,
      "selbst": 8208,
      "fest": 8209,
      "##vir": 8210,
      "##ollen": 8211,
      "##erent": 8212,
      "##agement": 8213,
      "against": 8214,
      "both": 8215,
      "##line": 8216,
      "Richt": 8217,
      "cr": 8218,
      "And": 8219,
      "##yp": 8220,
      "used": 8221,
      "much": 8222,
      "mich": 8223,
      "##wort": 8224,
      "country": 8225,
      "##hn": 8226,
      "med": 8227,
      "ger": 8228,
      "mak": 8229,
      "##its": 8230,
      "var": 8231,
      "##lage": 8232,
      "hist": 8233,
      "sign": 8234,
      "therefore": 8235,
      "##icult": 8236,
      "##hip": 8237,
      "fun": 8238,
      "ihrer": 8239,
      "##utions": 8240,
      "wichtig": 8241,
      "##ivid": 8242,
      "##entral": 8243,
      "Wie": 8244,
      "ohne": 8245,
      "##ds": 8246,
      "free": 8247,
      "fl": 8248,
      "sollte": 8249,
      "play": 8250,
      "bring": 8251,
      "europäischen": 8252,
      "führ": 8253,
      "last": 8254,
      "neuen": 8255,
      "Hin": 8256,
      "##ierten": 8257,
      "##ove": 8258,
      "##satz": 8259,
      "pra": 8260,
      "##feren": 8261,
      "##viron": 8262,
      "##hin": 8263,
      "##äre": 8264,
      "##ilt": 8265,
      "##ustom": 8266,
      "Jahren": 8267,
      "##etzen": 8268,
      "##ulation": 8269,
      "##rand": 8270,
      "oper": 8271,
      "##ploy": 8272,
      "social": 8273,
      "ange": 8274,
      "##äng": 8275,
      "Schl": 8276,
      "ser": 8277,
      "##bes": 8278,
      "andere": 8279,
      "finan": 8280,
      "##ux": 8281,
      "##ling": 8282,
      "cert": 8283,
      "##ention": 8284,
      "Part": 8285,
      "##politik": 8286,
      "##reichen": 8287,
      "##ftware": 8288,
      "help": 8289,
      "zwei": 8290,
      "Sicherheit": 8291,
      "exp": 8292,
      "opt": 8293,
      "eigen": 8294,
      "##fahren": 8295,
      "##ically": 8296,
      "mod": 8297,
      "group": 8298,
      "think": 8299,
      "without": 8300,
      "##öß": 8301,
      "denn": 8302,
      "##ittee": 8303,
      "Entwicklung": 8304,
      "30": 8305,
      "##ietet": 8306,
      "Kont": 8307,
      "##ize": 8308,
      "Mon": 8309,
      "spec": 8310,
      "exper": 8311,
      "still": 8312,
      "Ste": 8313,
      "priv": 8314,
      "##vironment": 8315,
      "meas": 8316,
      "Daten": 8317,
      "govern": 8318,
      "Frage": 8319,
      "ens": 8320,
      "##immt": 8321,
      "00": 8322,
      "down": 8323,
      "denen": 8324,
      "##ma": 8325,
      "services": 8326,
      "##ieten": 8327,
      "sollten": 8328,
      "different": 8329,
      "##fern": 8330,
      "##lichkeit": 8331,
      "finden": 8332,
      "gemeins": 8333,
      "##atur": 8334,
      "##gar": 8335,
      "Bürger": 8336,
      "ausge": 8337,
      "##ffen": 8338,
      "##iver": 8339,
      "möglich": 8340,
      "char": 8341,
      "Mus": 8342,
      "Kommiss": 8343,
      "##ron": 8344,
      "Tra": 8345,
      "ents": 8346,
      "Person": 8347,
      "##rupp": 8348,
      "Best": 8349,
      "##work": 8350,
      "##nahme": 8351,
      "prin": 8352,
      "back": 8353,
      "verschieden": 8354,
      "##ists": 8355,
      "Em": 8356,
      "##ven": 8357,
      "##way": 8358,
      "##br": 8359,
      "##zeug": 8360,
      "##kun": 8361,
      "##ondere": 8362,
      "bef": 8363,
      "##ährend": 8364,
      "able": 8365,
      "##ness": 8366,
      "##ope": 8367,
      "available": 8368,
      "##ationen": 8369,
      "##ktur": 8370,
      "##over": 8371,
      "##ollow": 8372,
      "agreement": 8373,
      "Kl": 8374,
      "##ER": 8375,
      "Stand": 8376,
      "000": 8377,
      "Aut": 8378,
      "require": 8379,
      "##iqu": 8380,
      "unterstütz": 8381,
      "kle": 8382,
      "Wor": 8383,
      "business": 8384,
      "##ife": 8385,
      "##uture": 8386,
      "bietet": 8387,
      "look": 8388,
      "##ibility": 8389,
      "curr": 8390,
      "##vers": 8391,
      "Dem": 8392,
      "##nte": 8393,
      "fac": 8394,
      "consider": 8395,
      "##esse": 8396,
      "special": 8397,
      "air": 8398,
      "##ispiel": 8399,
      "##ised": 8400,
      "##hor": 8401,
      "##ready": 8402,
      "##ability": 8403,
      "##iß": 8404,
      "##ienst": 8405,
      "small": 8406,
      "dazu": 8407,
      "##ude": 8408,
      "##ience": 8409,
      "##oren": 8410,
      "##ination": 8411,
      "cor": 8412,
      "##omen": 8413,
      "ben": 8414,
      "som": 8415,
      "##alth": 8416,
      "geb": 8417,
      "custom": 8418,
      "gem": 8419,
      "viele": 8420,
      "liegt": 8421,
      "allen": 8422,
      "machen": 8423,
      "Bo": 8424,
      "et": 8425,
      "##los": 8426,
      "weil": 8427,
      "already": 8428,
      "Sh": 8429,
      "open": 8430,
      "Änder": 8431,
      "future": 8432,
      "effect": 8433,
      "before": 8434,
      "##äß": 8435,
      "##licht": 8436,
      "aller": 8437,
      "pers": 8438,
      "believe": 8439,
      "design": 8440,
      "service": 8441,
      "##ahmen": 8442,
      "bek": 8443,
      "##elegen": 8444,
      "##akt": 8445,
      "Res": 8446,
      "##ward": 8447,
      "Med": 8448,
      "11": 8449,
      "##aben": 8450,
      "##ritt": 8451,
      "Ziel": 8452,
      "##stellung": 8453,
      "But": 8454,
      "course": 8455,
      "##eich": 8456,
      "##cond": 8457,
      "letz": 8458,
      "seiner": 8459,
      "##udget": 8460,
      "##ym": 8461,
      "bo": 8462,
      "##zug": 8463,
      "##wert": 8464,
      "That": 8465,
      "Finanz": 8466,
      "today": 8467,
      "art": 8468,
      "set": 8469,
      "##punkt": 8470,
      "##ohn": 8471,
      "darauf": 8472,
      "##stellen": 8473,
      "Möglichkeit": 8474,
      "too": 8475,
      "products": 8476,
      "start": 8477,
      "##annt": 8478,
      "##ante": 8479,
      "##ismus": 8480,
      "##yn": 8481,
      "##affen": 8482,
      "Them": 8483,
      "jetzt": 8484,
      "##kten": 8485,
      "##orts": 8486,
      "Serv": 8487,
      "##stitution": 8488,
      "##plement": 8489,
      "cann": 8490,
      "##urity": 8491,
      "2009": 8492,
      "environment": 8493,
      "##aher": 8494,
      "größ": 8495,
      "##aupt": 8496,
      "Ad": 8497,
      "prom": 8498,
      "quality": 8499,
      "##nisse": 8500,
      "##arten": 8501,
      "##agen": 8502,
      "Gew": 8503,
      "respons": 8504,
      "day": 8505,
      "Rahmen": 8506,
      "adv": 8507,
      "##ahre": 8508,
      "##angen": 8509,
      "##ins": 8510,
      "##itiz": 8511,
      "##ctor": 8512,
      "Lage": 8513,
      "##ossen": 8514,
      "data": 8515,
      "Maßnahmen": 8516,
      "##ves": 8517,
      "cannot": 8518,
      "##ica": 8519,
      "instit": 8520,
      "certain": 8521,
      "##grund": 8522,
      "Informationen": 8523,
      "##urg": 8524,
      "Pol": 8525,
      "bro": 8526,
      "follow": 8527,
      "cap": 8528,
      "geht": 8529,
      "seit": 8530,
      "##aften": 8531,
      "mir": 8532,
      "case": 8533,
      "redu": 8534,
      "einfach": 8535,
      "##ders": 8536,
      "schon": 8537,
      "##fass": 8538,
      "##aterial": 8539,
      "bin": 8540,
      "Verein": 8541,
      "Energ": 8542,
      "Rechts": 8543,
      "Mein": 8544,
      "wo": 8545,
      "##ragen": 8546,
      "##ence": 8547,
      "##etzung": 8548,
      "mus": 8549,
      "Amer": 8550,
      "Russ": 8551,
      "##olution": 8552,
      "Internet": 8553,
      "neg": 8554,
      "##okrat": 8555,
      "##ted": 8556,
      "##riff": 8557,
      "individ": 8558,
      "##other": 8559,
      "##inal": 8560,
      "##ately": 8561,
      "##raph": 8562,
      "##leist": 8563,
      "Gemein": 8564,
      "##res": 8565,
      "##ichten": 8566,
      "Mittel": 8567,
      "##allen": 8568,
      "##ultur": 8569,
      "##iving": 8570,
      "offers": 8571,
      "##chie": 8572,
      "##folg": 8573,
      "##ccess": 8574,
      "law": 8575,
      "Trans": 8576,
      "regard": 8577,
      "put": 8578,
      "dafür": 8579,
      "##ether": 8580,
      "##olid": 8581,
      "einige": 8582,
      "##tend": 8583,
      "##klär": 8584,
      "impro": 8585,
      "Qu": 8586,
      "invest": 8587,
      "##ucht": 8588,
      "##eid": 8589,
      "question": 8590,
      "##abei": 8591,
      "city": 8592,
      "voll": 8593,
      "##antwort": 8594,
      "Stadt": 8595,
      "Commissioner": 8596,
      "ple": 8597,
      "Herrn": 8598,
      "integr": 8599,
      "##ctions": 8600,
      "Zimmer": 8601,
      "##ungsant": 8602,
      "Schw": 8603,
      "##ätz": 8604,
      "deut": 8605,
      "To": 8606,
      "financial": 8607,
      "16": 8608,
      "##amm": 8609,
      "##tt": 8610,
      "sicher": 8611,
      "##ified": 8612,
      "##lungs": 8613,
      "##ential": 8614,
      "##iew": 8615,
      "##ually": 8616,
      "##ption": 8617,
      "##ilit": 8618,
      "rev": 8619,
      "##alen": 8620,
      "maj": 8621,
      "posit": 8622,
      "eng": 8623,
      "reas": 8624,
      "##ars": 8625,
      "##imes": 8626,
      "##wand": 8627,
      "during": 8628,
      "Spe": 8629,
      "##eter": 8630,
      "citiz": 8631,
      "erw": 8632,
      "##gress": 8633,
      "ref": 8634,
      "activ": 8635,
      "far": 8636,
      "implement": 8637,
      "zurück": 8638,
      "Uns": 8639,
      "fol": 8640,
      "global": 8641,
      "ihren": 8642,
      "##ichte": 8643,
      "##ters": 8644,
      "problem": 8645,
      "##iber": 8646,
      "stat": 8647,
      "Aussch": 8648,
      "Wer": 8649,
      "el": 8650,
      "##lä": 8651,
      "Jahre": 8652,
      "ret": 8653,
      "gef": 8654,
      "Ph": 8655,
      "##operation": 8656,
      "energ": 8657,
      "said": 8658,
      "##ahn": 8659,
      "allem": 8660,
      "cost": 8661,
      "##ator": 8662,
      "pass": 8663,
      "control": 8664,
      "##ather": 8665,
      "repr": 8666,
      "saf": 8667,
      "Bei": 8668,
      "nun": 8669,
      "##isl": 8670,
      "Pal": 8671,
      "##ichter": 8672,
      "debate": 8673,
      "##isierung": 8674,
      "means": 8675,
      "including": 8676,
      "Form": 8677,
      "achie": 8678,
      "issue": 8679,
      "##aum": 8680,
      "##uchen": 8681,
      "example": 8682,
      "##reit": 8683,
      "member": 8684,
      "Kin": 8685,
      "##kunft": 8686,
      "proposal": 8687,
      "modern": 8688,
      "ask": 8689,
      "major": 8690,
      "##bsite": 8691,
      "applic": 8692,
      "##ily": 8693,
      "famil": 8694,
      "zusammen": 8695,
      "Für": 8696,
      "Eng": 8697,
      "##ains": 8698,
      "meine": 8699,
      "##ests": 8700,
      "##nov": 8701,
      "##omat": 8702,
      "##ash": 8703,
      "##welt": 8704,
      "##lex": 8705,
      "##reib": 8706,
      "interest": 8707,
      "strateg": 8708,
      "since": 8709,
      "Als": 8710,
      "##inen": 8711,
      "found": 8712,
      "rooms": 8713,
      "##besondere": 8714,
      "##heiten": 8715,
      "besch": 8716,
      "besonder": 8717,
      "meet": 8718,
      "##iele": 8719,
      "eas": 8720,
      "##ways": 8721,
      "Politik": 8722,
      "25": 8723,
      "##illion": 8724,
      "Eine": 8725,
      "situation": 8726,
      "##lungen": 8727,
      "che": 8728,
      "necess": 8729,
      "technolog": 8730,
      "Our": 8731,
      "##ites": 8732,
      "##cing": 8733,
      "However": 8734,
      "##ott": 8735,
      "##earch": 8736,
      "unseren": 8737,
      "With": 8738,
      "##ized": 8739,
      "wollen": 8740,
      "##führt": 8741,
      "power": 8742,
      "based": 8743,
      "child": 8744,
      "result": 8745,
      "verfü": 8746,
      "17": 8747,
      "Und": 8748,
      "common": 8749,
      "End": 8750,
      "14": 8751,
      "Gesch": 8752,
      "few": 8753,
      "Kommissar": 8754,
      "##ilities": 8755,
      "amend": 8756,
      "gar": 8757,
      "##ktionen": 8758,
      "each": 8759,
      "fur": 8760,
      "##eschäft": 8761,
      "würde": 8762,
      "##blems": 8763,
      "##halts": 8764,
      "compet": 8765,
      "Ger": 8766,
      "##fts": 8767,
      "adop": 8768,
      "Auss": 8769,
      "##pra": 8770,
      "respect": 8771,
      "Parlaments": 8772,
      "matter": 8773,
      "##lossen": 8774,
      "entsch": 8775,
      "schw": 8776,
      "##ule": 8777,
      "Ur": 8778,
      "##orn": 8779,
      "##bed": 8780,
      "##mar": 8781,
      "Committee": 8782,
      "Proje": 8783,
      "colle": 8784,
      "Techn": 8785,
      "citizens": 8786,
      "Bild": 8787,
      "##länd": 8788,
      "komm": 8789,
      "##ache": 8790,
      "##utes": 8791,
      "##gleich": 8792,
      "##immung": 8793,
      "##oten": 8794,
      "Lös": 8795,
      "three": 8796,
      "während": 8797,
      "author": 8798,
      "stay": 8799,
      "Bl": 8800,
      "etwas": 8801,
      "Euro": 8802,
      "##ipp": 8803,
      "##genommen": 8804,
      "abs": 8805,
      "Deut": 8806,
      "New": 8807,
      "##ird": 8808,
      "##aurant": 8809,
      "##ining": 8810,
      "Länder": 8811,
      "tun": 8812,
      "stud": 8813,
      "democ": 8814,
      "du": 8815,
      "##opp": 8816,
      "sagen": 8817,
      "##ablish": 8818,
      "represent": 8819,
      "allow": 8820,
      "sozial": 8821,
      "employ": 8822,
      "next": 8823,
      "Vorschlag": 8824,
      "organis": 8825,
      "enth": 8826,
      "areas": 8827,
      "##ased": 8828,
      "##come": 8829,
      "grow": 8830,
      "##ums": 8831,
      "measures": 8832,
      "cult": 8833,
      "##racht": 8834,
      "build": 8835,
      "##bt": 8836,
      "doch": 8837,
      "La": 8838,
      "##agt": 8839,
      "give": 8840,
      "##lig": 8841,
      "Beh": 8842,
      "##mittel": 8843,
      "large": 8844,
      "met": 8845,
      "##red": 8846,
      "rece": 8847,
      "Kom": 8848,
      "100": 8849,
      "success": 8850,
      "##ehm": 8851,
      "##amer": 8852,
      "##ged": 8853,
      "##zw": 8854,
      "histor": 8855,
      "energy": 8856,
      "Unterstütz": 8857,
      "##asch": 8858,
      "budget": 8859,
      "50": 8860,
      "##linie": 8861,
      "##tain": 8862,
      "thank": 8863,
      "discuss": 8864,
      "sk": 8865,
      "Mill": 8866,
      "##ugen": 8867,
      "Durch": 8868,
      "Cl": 8869,
      "insbesondere": 8870,
      "erm": 8871,
      "2010": 8872,
      "##arn": 8873,
      "establish": 8874,
      "Rest": 8875,
      "provide": 8876,
      "##schließ": 8877,
      "wissen": 8878,
      "##ürlich": 8879,
      "Qual": 8880,
      "ur": 8881,
      "stehen": 8882,
      "Ital": 8883,
      "fra": 8884,
      "##co": 8885,
      "##orte": 8886,
      "taken": 8887,
      "China": 8888,
      "##rad": 8889,
      "Su": 8890,
      "kom": 8891,
      "link": 8892,
      "13": 8893,
      "##anken": 8894,
      "Zug": 8895,
      "##ordnung": 8896,
      "##ading": 8897,
      "##orth": 8898,
      "erhalten": 8899,
      "pay": 8900,
      "addition": 8901,
      "##uge": 8902,
      "##falls": 8903,
      "##itor": 8904,
      "##lus": 8905,
      "Spiel": 8906,
      "Problem": 8907,
      "##ek": 8908,
      "##ruct": 8909,
      "außer": 8910,
      "##ipl": 8911,
      "##EN": 8912,
      "il": 8913,
      "Fall": 8914,
      "öffent": 8915,
      "##joy": 8916,
      "einmal": 8917,
      "##ald": 8918,
      "Verfü": 8919,
      "##iate": 8920,
      "schn": 8921,
      "waren": 8922,
      "bedeut": 8923,
      "fil": 8924,
      "position": 8925,
      "##esen": 8926,
      "##indet": 8927,
      "bl": 8928,
      "##vention": 8929,
      "Go": 8930,
      "##erb": 8931,
      "Ro": 8932,
      "##ente": 8933,
      "##ases": 8934,
      "2008": 8935,
      "verl": 8936,
      "ans": 8937,
      "ensure": 8938,
      "terr": 8939,
      "Ang": 8940,
      "net": 8941,
      "beh": 8942,
      "##itäten": 8943,
      "Group": 8944,
      "pop": 8945,
      "##cken": 8946,
      "##ierungs": 8947,
      "further": 8948,
      "##ditions": 8949,
      "##gang": 8950,
      "Markt": 8951,
      "##igten": 8952,
      "beim": 8953,
      "come": 8954,
      "##uff": 8955,
      "contr": 8956,
      "Unterstützung": 8957,
      "Bel": 8958,
      "##ules": 8959,
      "##zahl": 8960,
      "opport": 8961,
      "##äge": 8962,
      "Stra": 8963,
      "Zusammenarbeit": 8964,
      "company": 8965,
      "ersten": 8966,
      "shall": 8967,
      "##ilfe": 8968,
      "problems": 8969,
      "Namen": 8970,
      "Mad": 8971,
      "##nect": 8972,
      "object": 8973,
      "legisl": 8974,
      "##man": 8975,
      "Gl": 8976,
      "necessary": 8977,
      "did": 8978,
      "change": 8979,
      "security": 8980,
      "##örder": 8981,
      "##ret": 8982,
      "princ": 8983,
      "key": 8984,
      "Sw": 8985,
      "Tag": 8986,
      "##igkeiten": 8987,
      "Dienst": 8988,
      "##zess": 8989,
      "##esser": 8990,
      "groß": 8991,
      "lassen": 8992,
      "Ländern": 8993,
      "##ateg": 8994,
      "##ogen": 8995,
      "##legen": 8996,
      "##ross": 8997,
      "##utzen": 8998,
      "health": 8999,
      "pract": 9000,
      "given": 9001,
      "begr": 9002,
      "ann": 9003,
      "erst": 9004,
      "##org": 9005,
      "##unic": 9006,
      "##iend": 9007,
      "inform": 9008,
      "second": 9009,
      "kommen": 9010,
      "##uten": 9011,
      "imp": 9012,
      "##elf": 9013,
      "##mit": 9014,
      "##ises": 9015,
      "erh": 9016,
      "vot": 9017,
      "wirk": 9018,
      "##öt": 9019,
      "aff": 9020,
      "Recht": 9021,
      "##tschafts": 9022,
      "invol": 9023,
      "##aving": 9024,
      "Proble": 9025,
      "geben": 9026,
      "drei": 9027,
      "life": 9028,
      "imm": 9029,
      "Änderungsant": 9030,
      "##ellschaft": 9031,
      "hope": 9032,
      "##dent": 9033,
      "entwick": 9034,
      "why": 9035,
      "pres": 9036,
      "however": 9037,
      "##ury": 9038,
      "Port": 9039,
      "Fe": 9040,
      "##ising": 9041,
      "while": 9042,
      "##orgen": 9043,
      "##iety": 9044,
      "Deb": 9045,
      "##ively": 9046,
      "cooperation": 9047,
      "##burg": 9048,
      "##ander": 9049,
      "##ctive": 9050,
      "##row": 9051,
      "wirtschaft": 9052,
      "##altung": 9053,
      "##nten": 9054,
      "##isation": 9055,
      "besteht": 9056,
      "vote": 9057,
      "##asse": 9058,
      "##AT": 9059,
      "located": 9060,
      "##wards": 9061,
      "##AN": 9062,
      "Vol": 9063,
      "##rop": 9064,
      "je": 9065,
      "tradition": 9066,
      "##schied": 9067,
      "Kunden": 9068,
      "protection": 9069,
      "Geschä": 9070,
      "wish": 9071,
      "accept": 9072,
      "ze": 9073,
      "##bau": 9074,
      "24": 9075,
      "ander": 9076,
      "##ands": 9077,
      "Red": 9078,
      "##reng": 9079,
      "Ob": 9080,
      "##urz": 9081,
      "Da": 9082,
      "Beit": 9083,
      "list": 9084,
      "always": 9085,
      "##führung": 9086,
      "needs": 9087,
      "Besch": 9088,
      "sens": 9089,
      "##ements": 9090,
      "account": 9091,
      "Ben": 9092,
      "##zieh": 9093,
      "##rän": 9094,
      "bew": 9095,
      "##prü": 9096,
      "##fre": 9097,
      "Fragen": 9098,
      "steht": 9099,
      "They": 9100,
      "tre": 9101,
      "sehen": 9102,
      "Tr": 9103,
      "##glichen": 9104,
      "seinen": 9105,
      "##ches": 9106,
      "##fte": 9107,
      "comb": 9108,
      "Dar": 9109,
      "United": 9110,
      "##leg": 9111,
      "War": 9112,
      "verst": 9113,
      "mult": 9114,
      "statt": 9115,
      "##avour": 9116,
      "enter": 9117,
      "nor": 9118,
      "##irm": 9119,
      "##wendung": 9120,
      "Kr": 9121,
      "akt": 9122,
      "reach": 9123,
      "legal": 9124,
      "better": 9125,
      "##schein": 9126,
      "##reen": 9127,
      "##bo": 9128,
      "##cted": 9129,
      "Regierung": 9130,
      "entspre": 9131,
      "happ": 9132,
      "defin": 9133,
      "##häng": 9134,
      "Sk": 9135,
      "men": 9136,
      "Seite": 9137,
      "House": 9138,
      "full": 9139,
      "wäre": 9140,
      "##äd": 9141,
      "Rom": 9142,
      "rele": 9143,
      "action": 9144,
      "col": 9145,
      "Community": 9146,
      "##egt": 9147,
      "##ätze": 9148,
      "dabei": 9149,
      "##ivil": 9150,
      "##ettbew": 9151,
      "##ichterst": 9152,
      "Lebens": 9153,
      "richt": 9154,
      "Kollegen": 9155,
      "fiel": 9156,
      "USA": 9157,
      "transport": 9158,
      "##text": 9159,
      "Energie": 9160,
      "Vertrag": 9161,
      "friend": 9162,
      "consum": 9163,
      "##ialog": 9164,
      "ren": 9165,
      "##gangen": 9166,
      "using": 9167,
      "##kon": 9168,
      "gehör": 9169,
      "##zü": 9170,
      "hö": 9171,
      "mov": 9172,
      "unt": 9173,
      "install": 9174,
      "2007": 9175,
      "##eign": 9176,
      "Not": 9177,
      "sing": 9178,
      "cho": 9179,
      "##gem": 9180,
      "##zeichnet": 9181,
      "##ift": 9182,
      "Entscheid": 9183,
      "Famil": 9184,
      "letzten": 9185,
      "##IN": 9186,
      "##bereich": 9187,
      "##iod": 9188,
      "What": 9189,
      "##gew": 9190,
      "Bedeut": 9191,
      "worden": 9192,
      "##rechte": 9193,
      "dav": 9194,
      "El": 9195,
      "add": 9196,
      "##iation": 9197,
      "exist": 9198,
      "around": 9199,
      "muß": 9200,
      "##sequ": 9201,
      "Was": 9202,
      "sl": 9203,
      "##cher": 9204,
      "ble": 9205,
      "##ikan": 9206,
      "##dress": 9207,
      "region": 9208,
      "##ros": 9209,
      "##undheit": 9210,
      "Fraktion": 9211,
      "##ique": 9212,
      "##ingungen": 9213,
      "Chr": 9214,
      "##schaften": 9215,
      "dra": 9216,
      "##gre": 9217,
      "enjoy": 9218,
      "run": 9219,
      "working": 9220,
      "Bus": 9221,
      "##iter": 9222,
      "##ustry": 9223,
      "Programm": 9224,
      "hal": 9225,
      "##ölk": 9226,
      "großen": 9227,
      "crit": 9228,
      "##uft": 9229,
      "deren": 9230,
      "##ources": 9231,
      "current": 9232,
      "große": 9233,
      "##abil": 9234,
      "Mrs": 9235,
      "##eite": 9236,
      "production": 9237,
      "chang": 9238,
      "welche": 9239,
      "##ify": 9240,
      "non": 9241,
      "##fang": 9242,
      "International": 9243,
      "Verfügung": 9244,
      "terms": 9245,
      "state": 9246,
      "When": 9247,
      "Lis": 9248,
      "Mark": 9249,
      "old": 9250,
      "Service": 9251,
      "##eiten": 9252,
      "##hof": 9253,
      "rapp": 9254,
      "lim": 9255,
      "Hier": 9256,
      "inner": 9257,
      "Bedeutung": 9258,
      "Ergeb": 9259,
      "##enten": 9260,
      "##zept": 9261,
      "specific": 9262,
      "Mal": 9263,
      "connect": 9264,
      "less": 9265,
      "##hol": 9266,
      "##ervor": 9267,
      "Haupt": 9268,
      "short": 9269,
      "trade": 9270,
      "making": 9271,
      "whether": 9272,
      "dist": 9273,
      "##oung": 9274,
      "centre": 9275,
      "become": 9276,
      "##ting": 9277,
      "particularly": 9278,
      "Fol": 9279,
      "##ca": 9280,
      "Air": 9281,
      "Tur": 9282,
      "orig": 9283,
      "toget": 9284,
      "near": 9285,
      "These": 9286,
      "##blick": 9287,
      "arr": 9288,
      "2000": 9289,
      "Schutz": 9290,
      "profess": 9291,
      "##cially": 9292,
      "##uments": 9293,
      "bar": 9294,
      "ir": 9295,
      "together": 9296,
      "Stud": 9297,
      "individual": 9298,
      "extre": 9299,
      "water": 9300,
      "##eder": 9301,
      "local": 9302,
      "##iges": 9303,
      "Aber": 9304,
      "Umwelt": 9305,
      "difficult": 9306,
      "visit": 9307,
      "tour": 9308,
      "another": 9309,
      "##kauf": 9310,
      "Staaten": 9311,
      "Lin": 9312,
      "ear": 9313,
      "research": 9314,
      "##ünst": 9315,
      "##sen": 9316,
      "mar": 9317,
      "##asser": 9318,
      "German": 9319,
      "UN": 9320,
      "clos": 9321,
      "##rift": 9322,
      "rapporte": 9323,
      "book": 9324,
      "bene": 9325,
      "Auch": 9326,
      "##offe": 9327,
      "Berichterst": 9328,
      "##ahlen": 9329,
      "gener": 9330,
      "##markt": 9331,
      "Mod": 9332,
      "##ordnet": 9333,
      "Kinder": 9334,
      "Fun": 9335,
      "##ustrie": 9336,
      "express": 9337,
      "him": 9338,
      "Beispiel": 9339,
      "children": 9340,
      "No": 9341,
      "care": 9342,
      "##ty": 9343,
      "##anies": 9344,
      "contrib": 9345,
      "Fahr": 9346,
      "rep": 9347,
      "##unde": 9348,
      "Lie": 9349,
      "##vious": 9350,
      "break": 9351,
      "def": 9352,
      "Jun": 9353,
      "notwend": 9354,
      "whole": 9355,
      "km": 9356,
      "##obil": 9357,
      "show": 9358,
      "##ES": 9359,
      "##immen": 9360,
      "##pflicht": 9361,
      "##igent": 9362,
      "jeder": 9363,
      "Beg": 9364,
      "##rif": 9365,
      "issues": 9366,
      "San": 9367,
      "##pecially": 9368,
      "##iar": 9369,
      "Weg": 9370,
      "##under": 9371,
      "Comp": 9372,
      "##jects": 9373,
      "bieten": 9374,
      "##uter": 9375,
      "hervor": 9376,
      "##by": 9377,
      "##ners": 9378,
      "##oms": 9379,
      "Thema": 9380,
      "conditions": 9381,
      "Strateg": 9382,
      "government": 9383,
      "davon": 9384,
      "Wirtschafts": 9385,
      "entfern": 9386,
      "##ckt": 9387,
      "##aden": 9388,
      "##arante": 9389,
      "reason": 9390,
      "##entrum": 9391,
      "tax": 9392,
      "verw": 9393,
      "##bene": 9394,
      "darüber": 9395,
      "sector": 9396,
      "fast": 9397,
      "address": 9398,
      "##ames": 9399,
      "erforder": 9400,
      "pat": 9401,
      "Frauen": 9402,
      "##druck": 9403,
      "EUR": 9404,
      "eben": 9405,
      "Haushalts": 9406,
      "##ails": 9407,
      "Ele": 9408,
      "##ording": 9409,
      "##schafts": 9410,
      "systems": 9411,
      "##ämpf": 9412,
      "alles": 9413,
      "Gu": 9414,
      "speak": 9415,
      "organ": 9416,
      "step": 9417,
      "##vest": 9418,
      "page": 9419,
      "Gä": 9420,
      "Probleme": 9421,
      "gegenüber": 9422,
      "daher": 9423,
      "##adies": 9424,
      "Ser": 9425,
      "##cle": 9426,
      "##kungen": 9427,
      "role": 9428,
      "##nehmen": 9429,
      "pack": 9430,
      "##ikel": 9431,
      "site": 9432,
      "schnell": 9433,
      "stellen": 9434,
      "Viel": 9435,
      "month": 9436,
      "##ennt": 9437,
      "##gabe": 9438,
      "various": 9439,
      "br": 9440,
      "eigenen": 9441,
      "##gehen": 9442,
      "writ": 9443,
      "brauch": 9444,
      "women": 9445,
      "Weise": 9446,
      "App": 9447,
      "##ategor": 9448,
      "benef": 9449,
      "personal": 9450,
      "##ika": 9451,
      "experience": 9452,
      "sowohl": 9453,
      "industry": 9454,
      "Kar": 9455,
      "gesam": 9456,
      "##rieden": 9457,
      "Sc": 9458,
      "Tour": 9459,
      "politischen": 9460,
      "companies": 9461,
      "##ellent": 9462,
      "guarante": 9463,
      "occ": 9464,
      "beach": 9465,
      "##ried": 9466,
      "##isions": 9467,
      "##veral": 9468,
      "weitere": 9469,
      "##isches": 9470,
      "project": 9471,
      "basis": 9472,
      "aim": 9473,
      "##üt": 9474,
      "##nt": 9475,
      "befindet": 9476,
      "##imate": 9477,
      "Ende": 9478,
      "näch": 9479,
      "##fäh": 9480,
      "third": 9481,
      "Deutsch": 9482,
      "especially": 9483,
      "typ": 9484,
      "doc": 9485,
      "könnte": 9486,
      "dort": 9487,
      "beaut": 9488,
      "perform": 9489,
      "di": 9490,
      "Ihrer": 9491,
      "Ausschuss": 9492,
      "##zus": 9493,
      "klar": 9494,
      "Seiten": 9495,
      "erreichen": 9496,
      "expl": 9497,
      "##hang": 9498,
      "##itiative": 9499,
      "really": 9500,
      "natürlich": 9501,
      "deal": 9502,
      "Geschäfts": 9503,
      "hatte": 9504,
      "called": 9505,
      "tot": 9506,
      "meiner": 9507,
      "distr": 9508,
      "top": 9509,
      "##thing": 9510,
      "gent": 9511,
      "Forsch": 9512,
      "wirklich": 9513,
      "close": 9514,
      "nie": 9515,
      "besonders": 9516,
      "prior": 9517,
      "Park": 9518,
      "arbeit": 9519,
      "Alle": 9520,
      "##ON": 9521,
      "innov": 9522,
      "Met": 9523,
      "##geordnet": 9524,
      "food": 9525,
      "##reg": 9526,
      "##reaty": 9527,
      "##oney": 9528,
      "staff": 9529,
      "Mehr": 9530,
      "members": 9531,
      "##gemein": 9532,
      "Zukunft": 9533,
      "private": 9534,
      "##bild": 9535,
      "##rodu": 9536,
      "##ritte": 9537,
      "##ably": 9538,
      "##hm": 9539,
      "period": 9540,
      "##unter": 9541,
      "##riften": 9542,
      "Grupp": 9543,
      "Software": 9544,
      "##ived": 9545,
      "ihnen": 9546,
      "##ünft": 9547,
      "##yl": 9548,
      "##ances": 9549,
      "done": 9550,
      "Richtlinie": 9551,
      "##fect": 9552,
      "##ports": 9553,
      "verschiedenen": 9554,
      "product": 9555,
      "2006": 9556,
      "line": 9557,
      "gra": 9558,
      "unterstützen": 9559,
      "##ton": 9560,
      "hoh": 9561,
      "##outh": 9562,
      "Berichterstatter": 9563,
      "Zwe": 9564,
      "proced": 9565,
      "subject": 9566,
      "favour": 9567,
      "Minister": 9568,
      "##chan": 9569,
      "Hotels": 9570,
      "Jan": 9571,
      "##ifiz": 9572,
      "##ization": 9573,
      "strong": 9574,
      "hoch": 9575,
      "press": 9576,
      "##ima": 9577,
      "##osition": 9578,
      "turn": 9579,
      "entfernt": 9580,
      "create": 9581,
      "##fast": 9582,
      "enc": 9583,
      "##genden": 9584,
      "21": 9585,
      "Situation": 9586,
      "innerhalb": 9587,
      "negot": 9588,
      "teil": 9589,
      "Produkt": 9590,
      "prop": 9591,
      "##zuf": 9592,
      "##ograph": 9593,
      "##lands": 9594,
      "location": 9595,
      "Co": 9596,
      "##dings": 9597,
      "##ino": 9598,
      "Wettbew": 9599,
      "##ething": 9600,
      "sum": 9601,
      "Terr": 9602,
      "##ides": 9603,
      "##ican": 9604,
      "##ety": 9605,
      "##oor": 9606,
      "##program": 9607,
      "spre": 9608,
      "##fül": 9609,
      "vielen": 9610,
      "Afr": 9611,
      "##ody": 9612,
      "##ival": 9613,
      "##icient": 9614,
      "gentle": 9615,
      "##zust": 9616,
      "Rolle": 9617,
      "Dire": 9618,
      "Germany": 9619,
      "langu": 9620,
      "##AR": 9621,
      "mot": 9622,
      "soc": 9623,
      "post": 9624,
      "comfort": 9625,
      "##iple": 9626,
      "##ined": 9627,
      "##duc": 9628,
      "approach": 9629,
      "Fest": 9630,
      "bor": 9631,
      "event": 9632,
      "##kung": 9633,
      "##asing": 9634,
      "reform": 9635,
      "##wirtschaft": 9636,
      "##spr": 9637,
      "she": 9638,
      "zwar": 9639,
      "direkt": 9640,
      "single": 9641,
      "##amt": 9642,
      "Wind": 9643,
      "##oment": 9644,
      "decision": 9645,
      "among": 9646,
      "dou": 9647,
      "job": 9648,
      "million": 9649,
      "##raum": 9650,
      "##ai": 9651,
      "Off": 9652,
      "##ktor": 9653,
      "struct": 9654,
      "198": 9655,
      "general": 9656,
      "home": 9657,
      "##ufen": 9658,
      "##imin": 9659,
      "internationalen": 9660,
      "##weg": 9661,
      "something": 9662,
      "lab": 9663,
      "Nutz": 9664,
      "Disk": 9665,
      "ra": 9666,
      "##use": 9667,
      "##schriften": 9668,
      "Ir": 9669,
      "##auer": 9670,
      "##olf": 9671,
      "itself": 9672,
      "bestimm": 9673,
      "class": 9674,
      "##indung": 9675,
      "material": 9676,
      "##ults": 9677,
      "several": 9678,
      "##finden": 9679,
      "Can": 9680,
      "Pat": 9681,
      "Woch": 9682,
      "##üd": 9683,
      "möchten": 9684,
      "select": 9685,
      "town": 9686,
      "##iol": 9687,
      "Abst": 9688,
      "##ief": 9689,
      "##onds": 9690,
      "rapporteur": 9691,
      "##less": 9692,
      "##ians": 9693,
      "##gaben": 9694,
      "##ager": 9695,
      "resolution": 9696,
      "##ec": 9697,
      "##prache": 9698,
      "Verbrauch": 9699,
      "Str": 9700,
      "##weisen": 9701,
      "##ittle": 9702,
      "Ko": 9703,
      "Uhr": 9704,
      "##prom": 9705,
      "##isis": 9706,
      "Ihren": 9707,
      "Nor": 9708,
      "führen": 9709,
      "##ordin": 9710,
      "text": 9711,
      "Technolog": 9712,
      "programme": 9713,
      "##ours": 9714,
      "Univers": 9715,
      "automat": 9716,
      "Nov": 9717,
      "continue": 9718,
      "dür": 9719,
      "dep": 9720,
      "hinaus": 9721,
      "feat": 9722,
      "name": 9723,
      "##rael": 9724,
      "etc": 9725,
      "progress": 9726,
      "management": 9727,
      "going": 9728,
      "##mework": 9729,
      "Berlin": 9730,
      "##ads": 9731,
      "least": 9732,
      "ess": 9733,
      "##ype": 9734,
      "Rück": 9735,
      "away": 9736,
      "introdu": 9737,
      "##ehmer": 9738,
      "Fil": 9739,
      "Komm": 9740,
      "##ober": 9741,
      "##ification": 9742,
      "following": 9743,
      "peace": 9744,
      "gentlemen": 9745,
      "kind": 9746,
      "excellent": 9747,
      "often": 9748,
      "World": 9749,
      "gewähr": 9750,
      "Frank": 9751,
      "serious": 9752,
      "##uh": 9753,
      "family": 9754,
      "relations": 9755,
      "##iten": 9756,
      "##iations": 9757,
      "streng": 9758,
      "bal": 9759,
      "tro": 9760,
      "23": 9761,
      "Artikel": 9762,
      "##wär": 9763,
      "opin": 9764,
      "##räge": 9765,
      "europäische": 9766,
      "##zeitig": 9767,
      "regul": 9768,
      "crisis": 9769,
      "##achst": 9770,
      "##mos": 9771,
      "understand": 9772,
      "Entwicklungs": 9773,
      "##ativen": 9774,
      "recht": 9775,
      "##ifen": 9776,
      "particip": 9777,
      "sett": 9778,
      "regional": 9779,
      "##ser": 9780,
      "anal": 9781,
      "glaub": 9782,
      "Partner": 9783,
      "##gricult": 9784,
      "plan": 9785,
      "##atives": 9786,
      "rules": 9787,
      "directive": 9788,
      "Car": 9789,
      "erste": 9790,
      "apart": 9791,
      "Natur": 9792,
      "##atte": 9793,
      "##ontrol": 9794,
      "Kre": 9795,
      "My": 9796,
      "Mo": 9797,
      "let": 9798,
      "##ving": 9799,
      "Gesundheit": 9800,
      "price": 9801,
      "##sk": 9802,
      "ant": 9803,
      "Spra": 9804,
      "##iken": 9805,
      "##com": 9806,
      "range": 9807,
      "mach": 9808,
      "money": 9809,
      "software": 9810,
      "##erien": 9811,
      "##weis": 9812,
      "online": 9813,
      "##icle": 9814,
      "feel": 9815,
      "Invest": 9816,
      "##iere": 9817,
      "Rep": 9818,
      "##though": 9819,
      "pur": 9820,
      "once": 9821,
      "40": 9822,
      "##oto": 9823,
      "##ierungen": 9824,
      "anges": 9825,
      "##produ": 9826,
      "##ension": 9827,
      "National": 9828,
      "##ksam": 9829,
      "dest": 9830,
      "Zahl": 9831,
      "forward": 9832,
      "mention": 9833,
      "stark": 9834,
      "Meinung": 9835,
      "towards": 9836,
      "##icial": 9837,
      "milit": 9838,
      "##lock": 9839,
      "Ent": 9840,
      "welcome": 9841,
      "extrem": 9842,
      "einzel": 9843,
      "Fisch": 9844,
      "mind": 9845,
      "ident": 9846,
      "little": 9847,
      "##geh": 9848,
      "recog": 9849,
      "absol": 9850,
      "Abgeordnet": 9851,
      "Gesetz": 9852,
      "##atch": 9853,
      "Gleich": 9854,
      "##thers": 9855,
      "communic": 9856,
      "things": 9857,
      "Kultur": 9858,
      "Bank": 9859,
      "##werk": 9860,
      "##stück": 9861,
      "Span": 9862,
      "institutions": 9863,
      "until": 9864,
      "Cent": 9865,
      "Zusammenhang": 9866,
      "Region": 9867,
      "Jul": 9868,
      "TV": 9869,
      "hät": 9870,
      "optim": 9871,
      "situ": 9872,
      "##iful": 9873,
      "zun": 9874,
      "review": 9875,
      "walk": 9876,
      "Sel": 9877,
      "sw": 9878,
      "Personen": 9879,
      "##itäts": 9880,
      "##IS": 9881,
      "##of": 9882,
      "function": 9883,
      "days": 9884,
      "land": 9885,
      "##platz": 9886,
      "##aps": 9887,
      "beiden": 9888,
      "unserem": 9889,
      "##istic": 9890,
      "check": 9891,
      "Lösung": 9892,
      "aid": 9893,
      "##kre": 9894,
      "22": 9895,
      "Madam": 9896,
      "##airs": 9897,
      "##esten": 9898,
      "Organis": 9899,
      "kommt": 9900,
      "##ußen": 9901,
      "Char": 9902,
      "##ruktur": 9903,
      "##voll": 9904,
      "reserv": 9905,
      "finanz": 9906,
      "##ubl": 9907,
      "2005": 9908,
      "##asst": 9909,
      "lo": 9910,
      "##oints": 9911,
      "##schutz": 9912,
      "keep": 9913,
      "known": 9914,
      "customers": 9915,
      "##armon": 9916,
      "##gän": 9917,
      "Hilfe": 9918,
      "##CH": 9919,
      "##äum": 9920,
      "Treaty": 9921,
      "##alle": 9922,
      "##pekt": 9923,
      "##usätz": 9924,
      "Entschließ": 9925,
      "##met": 9926,
      "##gestellt": 9927,
      "contra": 9928,
      "##inz": 9929,
      "Bas": 9930,
      "elect": 9931,
      "zahl": 9932,
      "##zogen": 9933,
      "##strument": 9934,
      "Son": 9935,
      "dev": 9936,
      "Schluss": 9937,
      "increase": 9938,
      "##iesen": 9939,
      "##liches": 9940,
      "##ison": 9941,
      "hard": 9942,
      "Ums": 9943,
      "##zimmer": 9944,
      "weltw": 9945,
      "agree": 9946,
      "growth": 9947,
      "##idence": 9948,
      "Verantwort": 9949,
      "opportunity": 9950,
      "##ferenz": 9951,
      "prepar": 9952,
      "##system": 9953,
      "##ommend": 9954,
      "port": 9955,
      "rather": 9956,
      "bzw": 9957,
      "Ass": 9958,
      "##ächst": 9959,
      "Dieses": 9960,
      "Kontrol": 9961,
      "##inter": 9962,
      "Gäste": 9963,
      "empf": 9964,
      "Produkte": 9965,
      "##itions": 9966,
      "Weit": 9967,
      "Christ": 9968,
      "##leicht": 9969,
      "expect": 9970,
      "activities": 9971,
      "##idency": 9972,
      "Demokrat": 9973,
      "Leben": 9974,
      "##ission": 9975,
      "big": 9976,
      "##enzen": 9977,
      "Preis": 9978,
      "Members": 9979,
      "##äuf": 9980,
      "quite": 9981,
      "ja": 9982,
      "##ocus": 9983,
      "##cel": 9984,
      "##fassung": 9985,
      "positive": 9986,
      "##leistungen": 9987,
      "##OR": 9988,
      "##apt": 9989,
      "stellt": 9990,
      "Ins": 9991,
      "##ona": 9992,
      "value": 9993,
      "etwa": 9994,
      "Per": 9995,
      "##plan": 9996,
      "bringen": 9997,
      "log": 9998,
      "Sept": 9999,
      "provided": 10000,
      "seem": 10001,
      "##okument": 10002,
      "treat": 10003,
      "##baren": 10004,
      "##mäß": 10005,
      "try": 10006,
      "Zust": 10007,
      "mean": 10008,
      "Präsidentin": 10009,
      "resources": 10010,
      "begrü": 10011,
      "stär": 10012,
      "ideal": 10013,
      "##präsident": 10014,
      "attra": 10015,
      "partners": 10016,
      "##annten": 10017,
      "##weil": 10018,
      "four": 10019,
      "sug": 10020,
      "weniger": 10021,
      "##aster": 10022,
      "##teilung": 10023,
      "##mb": 10024,
      "##eits": 10025,
      "##prochen": 10026,
      "##gelegt": 10027,
      "##ply": 10028,
      "##half": 10029,
      "indem": 10030,
      "##gent": 10031,
      "mitt": 10032,
      "##bet": 10033,
      "##haus": 10034,
      "might": 10035,
      "daran": 10036,
      "Gegen": 10037,
      "fully": 10038,
      "behalf": 10039,
      "gilt": 10040,
      "effe": 10041,
      "##rieben": 10042,
      "##forderungen": 10043,
      "State": 10044,
      "##stra": 10045,
      "2004": 10046,
      "mag": 10047,
      "##beh": 10048,
      "Date": 10049,
      "Deshalb": 10050,
      "Rates": 10051,
      "Sozial": 10052,
      "Austr": 10053,
      "industr": 10054,
      "##reiche": 10055,
      "##apan": 10056,
      "##ämlich": 10057,
      "request": 10058,
      "jeden": 10059,
      "park": 10060,
      "spiel": 10061,
      "##ideo": 10062,
      "Gar": 10063,
      "##mosph": 10064,
      "Sa": 10065,
      "Kü": 10066,
      "September": 10067,
      "include": 10068,
      "After": 10069,
      "##letz": 10070,
      "tem": 10071,
      "technology": 10072,
      "bitte": 10073,
      "gesagt": 10074,
      "Text": 10075,
      "Sal": 10076,
      "nämlich": 10077,
      "left": 10078,
      "##gn": 10079,
      "yet": 10080,
      "##arch": 10081,
      "signific": 10082,
      "##uth": 10083,
      "##frage": 10084,
      "Kosten": 10085,
      "admin": 10086,
      "##rifft": 10087,
      "##AS": 10088,
      "past": 10089,
      "einge": 10090,
      "##ählen": 10091,
      "field": 10092,
      "##uellen": 10093,
      "Erfahr": 10094,
      "persön": 10095,
      "##amental": 10096,
      "Gründ": 10097,
      "educ": 10098,
      "##abhäng": 10099,
      "arch": 10100,
      "##eless": 10101,
      "##wohl": 10102,
      "having": 10103,
      "##komm": 10104,
      "##stadt": 10105,
      "##na": 10106,
      "Geld": 10107,
      "##igungs": 10108,
      "light": 10109,
      "##bon": 10110,
      "content": 10111,
      "ladies": 10112,
      "Priv": 10113,
      "sogar": 10114,
      "##eller": 10115,
      "##ücksicht": 10116,
      "Europas": 10117,
      "Ort": 10118,
      "##ären": 10119,
      "genau": 10120,
      "Millionen": 10121,
      "##yr": 10122,
      "##ference": 10123,
      "One": 10124,
      "kurz": 10125,
      "##20": 10126,
      "##ana": 10127,
      "perm": 10128,
      "along": 10129,
      "##ratic": 10130,
      "Web": 10131,
      "contact": 10132,
      "Tod": 10133,
      "proposals": 10134,
      "##ächlich": 10135,
      "test": 10136,
      "kosten": 10137,
      "Israel": 10138,
      "Früh": 10139,
      "amendments": 10140,
      "beautiful": 10141,
      "taking": 10142,
      "Zugang": 10143,
      "times": 10144,
      "##anst": 10145,
      "led": 10146,
      "##anc": 10147,
      "##wendet": 10148,
      "solution": 10149,
      "appear": 10150,
      "##völk": 10151,
      "##ops": 10152,
      "##treten": 10153,
      "Jahres": 10154,
      "remain": 10155,
      "framework": 10156,
      "bekannt": 10157,
      "erfolg": 10158,
      "sat": 10159,
      "##ließen": 10160,
      "kl": 10161,
      "gerade": 10162,
      "safety": 10163,
      "Wirtschaft": 10164,
      "##elegenheit": 10165,
      "pa": 10166,
      "Punkt": 10167,
      "##OM": 10168,
      "##roffen": 10169,
      "week": 10170,
      "##illa": 10171,
      "minutes": 10172,
      "Institution": 10173,
      "##ending": 10174,
      "recommend": 10175,
      "easy": 10176,
      "nehmen": 10177,
      "Tür": 10178,
      "##erecht": 10179,
      "building": 10180,
      "##rachten": 10181,
      "##ingen": 10182,
      "above": 10183,
      "Den": 10184,
      "##uests": 10185,
      "economy": 10186,
      "2003": 10187,
      "creat": 10188,
      "costs": 10189,
      "viol": 10190,
      "##fully": 10191,
      "##imum": 10192,
      "##ee": 10193,
      "##iberal": 10194,
      "##ennen": 10195,
      "star": 10196,
      "##oph": 10197,
      "aufge": 10198,
      "##racy": 10199,
      "Projekt": 10200,
      "essential": 10201,
      "##self": 10202,
      "ihn": 10203,
      "others": 10204,
      "##inge": 10205,
      "##stant": 10206,
      "politische": 10207,
      "prevent": 10208,
      "Dank": 10209,
      "Deutschland": 10210,
      "##iers": 10211,
      "adopted": 10212,
      "strength": 10213,
      "tool": 10214,
      "##cri": 10215,
      "bank": 10216,
      "##recht": 10217,
      "ebenfalls": 10218,
      "##load": 10219,
      "##let": 10220,
      "##ativ": 10221,
      "stre": 10222,
      "Verhand": 10223,
      "Tats": 10224,
      "offen": 10225,
      "meisten": 10226,
      "transpar": 10227,
      "unterschied": 10228,
      "Wahl": 10229,
      "Regel": 10230,
      "freed": 10231,
      "Website": 10232,
      "ihm": 10233,
      "##ethod": 10234,
      "bath": 10235,
      "Dieser": 10236,
      "Unsere": 10237,
      "charac": 10238,
      "makes": 10239,
      "gemacht": 10240,
      "##aste": 10241,
      "Leist": 10242,
      "Buch": 10243,
      "##unst": 10244,
      "Ebene": 10245,
      "##side": 10246,
      "flex": 10247,
      "##lau": 10248,
      "Janu": 10249,
      "tar": 10250,
      "seinem": 10251,
      "return": 10252,
      "Kap": 10253,
      "Angeb": 10254,
      "ak": 10255,
      "##IT": 10256,
      "besser": 10257,
      "Bezug": 10258,
      "##eil": 10259,
      "constru": 10260,
      "dessen": 10261,
      "flo": 10262,
      "opinion": 10263,
      "focus": 10264,
      "##atten": 10265,
      "perfect": 10266,
      "Plan": 10267,
      "agricult": 10268,
      "challen": 10269,
      "verbunden": 10270,
      "Prof": 10271,
      "standard": 10272,
      "##ühren": 10273,
      "##iben": 10274,
      "##pen": 10275,
      "never": 10276,
      "Verkehr": 10277,
      "##ij": 10278,
      "website": 10279,
      "darf": 10280,
      "Sub": 10281,
      "application": 10282,
      "Aussprache": 10283,
      "Verw": 10284,
      "heart": 10285,
      "unterstützt": 10286,
      "instr": 10287,
      "legislation": 10288,
      "wesent": 10289,
      "##za": 10290,
      "Rechte": 10291,
      "effective": 10292,
      "Restaurant": 10293,
      "wahr": 10294,
      "risk": 10295,
      "pot": 10296,
      "bit": 10297,
      "##aurants": 10298,
      "fair": 10299,
      "Tre": 10300,
      "##reicht": 10301,
      "Flug": 10302,
      "deliver": 10303,
      "II": 10304,
      "##verb": 10305,
      "Pak": 10306,
      "cover": 10307,
      "Sol": 10308,
      "Design": 10309,
      "##eed": 10310,
      "##50": 10311,
      "projects": 10312,
      "beginn": 10313,
      "points": 10314,
      "results": 10315,
      "nah": 10316,
      "tele": 10317,
      "gehen": 10318,
      "##here": 10319,
      "dom": 10320,
      "##igital": 10321,
      "provides": 10322,
      "gute": 10323,
      "Ide": 10324,
      "Qualität": 10325,
      "Netz": 10326,
      "programm": 10327,
      "Wel": 10328,
      "due": 10329,
      "Antw": 10330,
      "##ught": 10331,
      "Frei": 10332,
      "##igr": 10333,
      "##aged": 10334,
      "##ampf": 10335,
      "darin": 10336,
      "Just": 10337,
      "##sweise": 10338,
      "##most": 10339,
      "##isiert": 10340,
      "##erne": 10341,
      "extra": 10342,
      "##fäl": 10343,
      "Rats": 10344,
      "##lei": 10345,
      "attention": 10346,
      "##raf": 10347,
      "Gemeinschaft": 10348,
      "sty": 10349,
      "mass": 10350,
      "policies": 10351,
      "Mär": 10352,
      "##obe": 10353,
      "Nicht": 10354,
      "##benso": 10355,
      "concerned": 10356,
      "responsibility": 10357,
      "team": 10358,
      "Rei": 10359,
      "Sicherheits": 10360,
      "2001": 10361,
      "##achten": 10362,
      "öffentlichen": 10363,
      "Fir": 10364,
      "host": 10365,
      "##arian": 10366,
      "##chs": 10367,
      "##ünf": 10368,
      "##word": 10369,
      "glaube": 10370,
      "simply": 10371,
      "nichts": 10372,
      "appropr": 10373,
      "##ators": 10374,
      "Prot": 10375,
      "derzeit": 10376,
      "dürfen": 10377,
      "##ufact": 10378,
      "##gebung": 10379,
      "groups": 10380,
      "##hing": 10381,
      "young": 10382,
      "einigen": 10383,
      "Jahrh": 10384,
      "##ichtet": 10385,
      "##reiben": 10386,
      "##uz": 10387,
      "Dr": 10388,
      "moder": 10389,
      "commit": 10390,
      "questions": 10391,
      "##ished": 10392,
      "importance": 10393,
      "##ledge": 10394,
      "Beschäft": 10395,
      "Hö": 10396,
      "##afen": 10397,
      "society": 10398,
      "Sl": 10399,
      "Benutz": 10400,
      "##ots": 10401,
      "##berg": 10402,
      "##bereit": 10403,
      "sea": 10404,
      "Nä": 10405,
      "total": 10406,
      "continu": 10407,
      "Wasser": 10408,
      "Groß": 10409,
      "Far": 10410,
      "##nehmer": 10411,
      "schaffen": 10412,
      "##emb": 10413,
      "sollen": 10414,
      "##cr": 10415,
      "context": 10416,
      "##ustain": 10417,
      "##erbs": 10418,
      "##ette": 10419,
      "nationalen": 10420,
      "holid": 10421,
      "##ceed": 10422,
      "max": 10423,
      "##ients": 10424,
      "Abstimmung": 10425,
      "ihrem": 10426,
      "environmental": 10427,
      "##aussch": 10428,
      "greater": 10429,
      "brauchen": 10430,
      "bestehen": 10431,
      "##schließlich": 10432,
      "version": 10433,
      "rad": 10434,
      "keinen": 10435,
      "method": 10436,
      "natural": 10437,
      "##ada": 10438,
[...]
